[PAD]
[CLS]
[SEP]
[MASK]
[UNK]
!
"
#
$
%
&
'
(
)
*
+
,
-
.
/
0
1
2
3
4
5
6
7
8
9
:
;
<
=
>
?
@
[
\
]
^
_
a
b
c
d
e
f
g
h
i
j
k
l
m
n
o
p
q
r
s
t
u
v
w
x
y
z
{
|
}
~
¡
¢
£
¤
¥
¦
§
¨
©
ª
«
¬
®
¯
°
±
²
³
µ
¶
·
¹
º
»
¼
½
¾
¿
×
ß
æ
ð
÷
ø
þ
đ
ħ
ı
ĳ
ł
ŉ
ŋ
œ
ſ
ƒ
ǁ
ɐ
ɑ
ɒ
ɓ
ɔ
ɕ
ə
ɛ
ɟ
ɡ
ɣ
ɤ
ɦ
ɨ
ɪ
ɫ
ɬ
ɯ
ɲ
ɴ
ɸ
ɹ
ɾ
ʀ
ʁ
ʂ
ʃ
ʉ
ʊ
ʋ
ʌ
ʎ
ʐ
ʑ
ʒ
ʔ
ʕ
ʙ
ʝ
ʤ
ʦ
ʧ
ʰ
ʲ
ʳ
ʷ
ʸ
ʻ
ʼ
ʾ
ʿ
ˁ
ˈ
ˋ
ˌ
ː
˙
˚
ˡ
ˢ
ˣ
΄
α
β
γ
δ
ε
ζ
η
θ
ι
κ
λ
μ
ν
ξ
ο
π
ρ
ς
σ
τ
υ
φ
χ
ψ
ω
ϕ
а
б
в
г
д
е
ж
з
и
к
л
м
н
о
п
р
с
т
у
ф
х
ц
ч
ш
щ
ъ
ы
ь
э
ю
я
ђ
є
ѕ
і
ј
љ
њ
ћ
џ
ѣ
ѧ
ѫ
ѳ
ґ
ғ
җ
ҙ
қ
ҡ
ң
ҫ
ү
ұ
ҳ
ҷ
ҹ
һ
ӊ
ӏ
ә
ө
՚
՛
՜
՝
՞
ա
բ
գ
դ
ե
զ
է
ը
թ
ժ
ի
լ
խ
ծ
կ
հ
ձ
ղ
ճ
մ
յ
ն
շ
ո
չ
պ
ջ
ռ
ս
վ
տ
ր
ց
ւ
փ
ք
օ
ֆ
և
։
֊
־
׃
א
ב
ג
ד
ה
ו
ז
ח
ט
י
ך
כ
ל
ם
מ
ן
נ
ס
ע
ף
פ
ץ
צ
ק
ר
ש
ת
׳
״
،
؍
؛
؟
ء
ا
ب
ة
ت
ث
ج
ح
خ
د
ذ
ر
ز
س
ش
ص
ض
ط
ظ
ع
غ
ـ
ف
ق
ك
ل
م
ن
ه
و
ى
ي
٠
١
٢
٣
٤
٥
٦
٧
٨
٩
٪
٫
٬
٭
ٴ
ٹ
پ
چ
ڈ
ڑ
ژ
ڠ
ڤ
ک
ڭ
گ
ں
ھ
ہ
ۃ
ۆ
ۇ
ۋ
ی
ێ
ے
۔
ە
۰
۱
۲
۳
۴
۵
۶
۷
۸
۹
ݨ
ः
अ
आ
इ
ई
उ
ऊ
ऋ
ऍ
ऎ
ए
ऐ
ऑ
ऒ
ओ
औ
क
ख
ग
घ
ङ
च
छ
ज
झ
ञ
ट
ठ
ड
ढ
ण
त
थ
द
ध
न
प
फ
ब
भ
म
य
र
ल
ळ
व
श
ष
स
ह
ऽ
ा
ि
ी
ॉ
ॊ
ो
ौ
ॐ
ॠ
।
॥
०
१
२
३
४
५
६
७
८
९
॰
ॲ
ং
ঃ
অ
আ
ই
ঈ
উ
ঊ
ঋ
এ
ঐ
ও
ঔ
ক
খ
গ
ঘ
ঙ
চ
ছ
জ
ঝ
ঞ
ট
ঠ
ড
ঢ
ণ
ত
থ
দ
ধ
ন
প
ফ
ব
ভ
ম
য
র
ল
শ
ষ
স
হ
া
ি
ী
ে
ৈ
ৎ
ৗ
০
১
২
৩
৪
৫
৬
৭
৮
৯
ৰ
ৱ
৷
ਅ
ਆ
ਇ
ਈ
ਉ
ਊ
ਏ
ਐ
ਓ
ਔ
ਕ
ਖ
ਗ
ਘ
ਚ
ਛ
ਜ
ਝ
ਟ
ਠ
ਡ
ਢ
ਣ
ਤ
ਥ
ਦ
ਧ
ਨ
ਪ
ਫ
ਬ
ਭ
ਮ
ਯ
ਰ
ਲ
ਵ
ਸ
ਹ
ਾ
ਿ
ੀ
ੜ
੦
੧
੨
੩
੪
੫
੬
੭
੮
੯
ੲ
ੳ
ઃ
અ
આ
ઇ
ઈ
ઉ
ઊ
ઋ
ઍ
એ
ઐ
ઑ
ઓ
ઔ
ક
ખ
ગ
ઘ
ચ
છ
જ
ઝ
ઞ
ટ
ઠ
ડ
ઢ
ણ
ત
થ
દ
ધ
ન
પ
ફ
બ
ભ
મ
ય
ર
લ
ળ
વ
શ
ષ
સ
હ
ા
િ
ી
ૉ
ો
ૌ
૦
૧
૨
૩
૪
૫
૬
૭
૮
૯
ஃ
அ
ஆ
இ
ஈ
உ
ஊ
எ
ஏ
ஐ
ஒ
ஓ
க
ங
ச
ஜ
ஞ
ட
ண
த
ந
ன
ப
ம
ய
ர
ற
ல
ள
ழ
வ
ஷ
ஸ
ஹ
ா
ி
ு
ூ
ெ
ே
ை
ௗ
ఁ
ం
ః
అ
ఆ
ఇ
ఈ
ఉ
ఊ
ఋ
ఎ
ఏ
ఐ
ఒ
ఓ
ఔ
క
ఖ
గ
ఘ
ఙ
చ
ఛ
జ
ఝ
ఞ
ట
ఠ
డ
ఢ
ణ
త
థ
ద
ధ
న
ప
ఫ
బ
భ
మ
య
ర
ఱ
ల
ళ
వ
శ
ష
స
హ
ు
ూ
ృ
ಂ
ಃ
ಅ
ಆ
ಇ
ಈ
ಉ
ಊ
ಋ
ಎ
ಏ
ಐ
ಒ
ಓ
ಔ
ಕ
ಖ
ಗ
ಘ
ಚ
ಛ
ಜ
ಝ
ಞ
ಟ
ಠ
ಡ
ಢ
ಣ
ತ
ಥ
ದ
ಧ
ನ
ಪ
ಫ
ಬ
ಭ
ಮ
ಯ
ರ
ಲ
ಳ
ವ
ಶ
ಷ
ಸ
ಹ
ಾ
ು
ೂ
ೃ
ೕ
ೖ
೦
೧
೨
೩
೪
೫
೬
೭
೮
೯
ം
ഃ
അ
ആ
ഇ
ഈ
ഉ
ഊ
ഋ
എ
ഏ
ഐ
ഒ
ഓ
ഔ
ക
ഖ
ഗ
ഘ
ങ
ച
ഛ
ജ
ഝ
ഞ
ട
ഠ
ഡ
ഢ
ണ
ത
ഥ
ദ
ധ
ന
പ
ഫ
ബ
ഭ
മ
യ
ര
റ
ല
ള
ഴ
വ
ശ
ഷ
സ
ഹ
ാ
ി
ീ
െ
േ
ൈ
ൗ
൧
൨
ൺ
ൻ
ർ
ൽ
ൾ
ൿ
ක
ද
ප
ම
ය
ර
ල
ශ
ා
ෙ
ก
ข
ค
ง
จ
ด
ต
ท
น
บ
ป
ภ
ม
ย
ร
ล
ว
ส
ห
อ
า
ำ
เ
แ
ไ
་
།
ཀ
ཁ
ག
ང
ཆ
ད
ན
པ
ཕ
བ
མ
ཚ
ཟ
འ
ར
ལ
ཤ
ས
က
ခ
ဂ
ဃ
င
စ
ဆ
ဇ
ဈ
ဉ
ည
ဋ
ဌ
ဍ
ဏ
တ
ထ
ဒ
ဓ
န
ပ
ဖ
ဗ
ဘ
မ
ယ
ရ
လ
ဝ
သ
ဟ
ဠ
အ
ဤ
ဥ
ဧ
ဩ
ါ
ာ
ေ
း
ျ
ြ
ဿ
၀
၁
၂
၃
၄
၅
၆
၇
၈
၉
၊
။
၌
၍
၎
၏
ა
ბ
გ
დ
ე
ვ
ზ
თ
ი
კ
ლ
მ
ნ
ო
პ
ჟ
რ
ს
ტ
უ
ფ
ქ
ღ
ყ
შ
ჩ
ც
ძ
წ
ჭ
ხ
ჯ
ჰ
ჲ
ᄀ
ᄁ
ᄂ
ᄃ
ᄄ
ᄅ
ᄆ
ᄇ
ᄈ
ᄉ
ᄊ
ᄋ
ᄌ
ᄍ
ᄎ
ᄏ
ᄐ
ᄑ
ᄒ
ᅡ
ᅢ
ᅣ
ᅤ
ᅥ
ᅦ
ᅧ
ᅨ
ᅩ
ᅪ
ᅫ
ᅬ
ᅭ
ᅮ
ᅯ
ᅰ
ᅱ
ᅲ
ᅳ
ᅴ
ᅵ
ᆨ
ᆩ
ᆪ
ᆫ
ᆬ
ᆭ
ᆮ
ᆯ
ᆰ
ᆱ
ᆲ
ᆵ
ᆶ
ᆷ
ᆸ
ᆹ
ᆺ
ᆻ
ᆼ
ᆽ
ᆾ
ᆿ
ᇀ
ᇁ
ᇂ
᛫
᛬
ᠠ
ᠨ
ᠬ
ᠭ
ᠰ
ᡳ
ᴬ
ᴮ
ᴰ
ᴵ
ᴶ
ᴷ
ᴺ
ᴼ
ᴾ
ᴿ
ᵀ
ᵂ
ᵃ
ᵇ
ᵈ
ᵉ
ᵍ
ᵏ
ᵐ
ᵒ
ᵖ
ᵗ
ᵘ
ᵛ
ᵢ
ᵣ
ᵤ
ᵥ
ᶜ
ᶠ
ᶻ
᾽
‖
‚
‛
„
‟
†
‡
•
․
‥
‧
‰
′
″
‹
›
※
‼
‿
⁄
⁰
ⁱ
⁴
⁵
⁶
⁷
⁸
⁹
⁺
⁻
⁾
ⁿ
₀
₁
₂
₃
₄
₅
₆
₇
₈
₉
₊
₍
₎
ₐ
ₑ
ₒ
ₓ
ₕ
ₖ
ₗ
ₘ
ₙ
ₚ
ₛ
ₜ
₤
₩
₪
€
₱
₴
₹
ℂ
℃
ℓ
ℕ
№
ℚ
ℝ
™
ℤ
⅓
⅔
⅛
ⅰ
ⅱ
ⅲ
ⅳ
ⅴ
ⅵ
ⅶ
←
↑
→
↓
↔
↗
↦
↺
⇄
⇌
⇒
⇔
⇧
∀
∂
∃
∅
∆
∇
∈
∑
−
∕
∗
∘
∙
√
∞
∥
∧
∨
∩
∪
∫
∴
∼
≅
≈
≒
≡
≤
≥
≪
≫
⊂
⊃
⊆
⊕
⊗
⊙
⊞
⊥
⋅
⋯
①
②
③
④
⑤
⑥
⑦
⑧
ⓐ
─
━
│
┃
┏
┓
└
┗
┛
├
┣
┫
┬
┳
║
╱
█
■
□
▪
▬
▭
▲
△
▶
►
▼
▽
◆
◇
◊
○
◌
◎
●
◡
◦
◯
★
☆
☉
♀
♂
♕
♖
♗
♘
♙
♠
♡
♣
♥
♦
♪
♭
♯
⚭
✝
⟨
⟩
⟪
⟫
⟶
ⱼ
ⵏ
⺩
⽥
、
。
〃
々
〆
〇
〈
〉
《
》
「
」
『
』
【
】
〒
〔
〕
〖
〗
〜
〝
〞
〟
ぁ
あ
ぃ
い
ぅ
う
ぇ
え
ぉ
お
か
き
く
け
こ
さ
し
す
せ
そ
た
ち
っ
つ
て
と
な
に
ぬ
ね
の
は
ひ
ふ
へ
ほ
ま
み
む
め
も
ゃ
や
ゅ
ゆ
ょ
よ
ら
り
る
れ
ろ
わ
ゐ
ゑ
を
ん
ゝ
ァ
ア
ィ
イ
ゥ
ウ
ェ
エ
ォ
オ
カ
キ
ク
ケ
コ
サ
シ
ス
セ
ソ
タ
チ
ッ
ツ
テ
ト
ナ
ニ
ヌ
ネ
ノ
ハ
ヒ
フ
ヘ
ホ
マ
ミ
ム
メ
モ
ャ
ヤ
ュ
ユ
ョ
ヨ
ラ
リ
ル
レ
ロ
ワ
ヰ
ヱ
ヲ
ン
ヵ
ヶ
・
ー
ㄚ
ㄧ
ㄨ
ㄱ
ㄴ
ㄷ
ㄹ
ㅁ
ㅂ
ㅅ
ㅇ
ㅈ
ㅡ
ㅣ
ㆍ
㈱
㎒
㎞
㎡
！
？
；
…
—
～
’
‘
／
｢
｣
°c
￥
＠
的
是
一
不
有
了
在
人
我
中
大
个
为
和
以
学
上
要
年
这
生
时
国
用
会
到
能
可
就
来
作
业
发
行
出
工
你
对
多
下
成
好
家
分
地
方
自
公
后
么
也
理
于
过
他
开
们
小
动
高
子
文
现
都
法
全
面
说
实
经
进
新
机
本
定
得
部
天
之
主
还
日
心
等
体
力
同
市
如
看
合
与
电
点
没
化
度
第
而
教
所
道
产
事
月
最
关
其
加
前
里
长
展
重
者
很
设
三
水
内
建
品
通
位
区
间
资
数
种
制
应
明
情
然
去
入
务
性
那
管
想
意
车
及
提
知
手
信
当
相
题
物
程
样
表
安
量
起
比
果
系
因
名
期
什
问
着
外
保
司
平
计
无
场
民
目
金
网
但
美
员
次
路
二
从
正
代
更
常
活
专
利
或
科
件
将
己
些
做
特
解
求
并
只
政
式
结
技
感
基
被
两
接
单
使
已
西
育
十
回
术
任
级
少
女
身
元
服
交
此
给
原
老
各
东
向
真
打
考
别
处
标
海
强
由
质
书
线
统
直
气
规
师
怎
组
色
号
流
立
门
南
总
格
报
社
导
让
院
山
收
图
项
企
变
爱
据
形
风
口
把
商
北
话
运
需
放
四
价
语
万
持
选
记
料
完
她
校
每
装
吗
头
请
证
受
影
城
传
办
示
才
该
容
具
先
改
世
型
台
共
研
认
习
查
联
调
注
指
造
带
字
转
省
类
条
费
节
备
至
神
再
效
器
快
集
创
试
息
限
游
光
几
达
广
精
清
治
花
论
非
见
又
百
思
案
视
取
准
整
太
乐
包
源
友
空
觉
吧
确
五
战
候
权
今
白
推
算
较
啊
营
领
界
球
施
何
深
米
识
增
观
置
近
它
支
儿
告
速
医
华
户
步
片
构
环
房
州
投
布
反
决
王
供
究
功
党
议
答
张
队
值
局
参
复
易
责
义
职
根
首
英
章
优
委
站
验
干
哪
模
配
存
态
江
难
客
喜
称
马
周
热
像
则
吃
消
济
宝
况
版
且
病
团
军
养
照
始
越
必
农
京
评
欢
买
音
斯
男
村
走
护
助
际
范
款
演
课
积
连
除
防
边
德
写
食
历
红
低
率
显
谢
段
修
象
孩
境
引
未
读
按
约
星
便
超
排
即
火
县
划
找
检
离
续
林
赛
钱
克
卡
采
士
言
材
控
望
满
极
住
命
断
销
载
素
阳
列
板
呢
状
压
升
角
油
足
维
众
律
尔
测
福
眼
适
班
青
故
拉
层
份
初
响
属
失
许
石
获
土
园
致
落
声
帮
双
编
织
监
玩
微
药
细
随
景
温
艺
河
预
死
协
险
府
切
史
亲
听
黄
古
简
龙
股
往
够
负
换
底
依
终
画
围
室
牌
远
店
财
戏
错
血
承
核
般
六
例
势
择
黑
群
春
充
李
培
严
击
词
仅
歌
早
析
密
却
跟
域
录
半
亚
策
差
银
申
留
售
楼
健
讲
志
争
益
朋
富
念
酒
八
审
送
千
普
均
互
右
香
轻
坚
剧
兴
族
害
官
批
母
购
康
输
脑
善
云
居
镇
页
举
须
免
纪
您
票
智
伤
句
述
货
融
码
库
否
册
独
武
疗
晚
左
刚
谁
止
博
补
减
旅
训
介
希
彩
皮
革
汽
奖
降
络
飞
某
括
味
木
卫
印
铁
招
岁
破
待
突
础
序
湖
良
哈
尽
执
七
软
巴
乡
诉
罗
假
另
座
付
盘
叫
额
妈
含
担
移
苏
汉
九
档
曾
端
略
季
副
短
练
阿
曲
套
绝
亿
筑
播
块
察
拿
久
激
纳
虽
奇
享
追
婚
余
梦
登
操
频
卖
继
吸
驶
毕
穿
遇
树
港
税
波
衣
朝
固
临
愿
父
宣
甲
笑
急
键
紧
警
篇
兰
夫
劳
坐
亮
背
秀
菜
粉
异
索
征
顺
肉
贵
占
停
签
刘
厂
陈
笔
刻
哥
钟
宁
洗
冷
令
似
草
退
著
若
拍
稳
灵
鱼
诗
街
障
毛
丽
绿
谈
典
缺
永
慢
综
轮
夜
沿
靠
庆
托
丰
庭
毒
叶
封
址
卷
雨
航
钢
藏
杀
液
松
督
冲
沙
熟
苦
攻
牛
绩
射
损
启
探
守
授
丝
借
概
姐
斗
架
附
针
判
堂
洲
促
顶
询
献
闻
静
抗
馆
央
怕
圆
符
患
竞
甚
迎
胜
田
染
掉
贴
桥
绍
威
阅
尼
佛
痛
欧
植
剂
兵
困
箱
乎
拥
礼
灯
硬
距
派
盖
幸
酸
阶
届
努
荣
聚
跑
午
帝
夏
媒
怀
散
救
顾
宜
零
倒
玉
川
胶
雪
翻
违
狗
唱
岛
佳
皇
吉
舞
予
杂
床
脸
杨
饰
透
挥
竟
误
汇
幼
骨
讯
抓
弟
餐
归
雷
脚
纸
讨
童
爆
奥
睡
危
侧
币
赞
尚
净
雄
鲜
脱
疑
陆
坏
圈
饭
茶
混
逐
乙
休
宗
私
露
仍
症
妹
延
释
订
既
趣
蛋
鸡
席
烟
肯
仪
措
冰
搭
租
宽
访
秋
握
罪
蓝
避
填
颜
野
辆
伴
折
唐
累
贸
巨
掌
懂
韩
洋
宫
束
弹
峰
厅
末
漫
麻
乘
爸
饮
污
虑
齐
屏
驾
估
迷
摄
贷
犯
镜
贫
岗
败
厚
牙
盛
池
途
虚
荐
触
链
幕
践
账
乱
刷
励
屋
呼
暖
诚
烈
喝
浪
恶
禁
魔
遗
辑
忘
渐
冬
敢
搜
泰
涉
聊
旧
哦
径
肥
船
扩
恩
润
楚
械
幅
洁
纯
挂
烧
姓
啦
详
孔
滑
沉
糖
忙
盟
秘
尤
隐
圣
邮
偏
耳
雅
弱
呀
湾
阴
惠
冠
吴
津
矿
胡
祝
塔
豆
刀
妇
描
孙
疾
庄
惊
刺
缘
扬
寻
挑
伙
跳
尊
储
墙
缩
诺
拟
祖
扣
弃
恋
谓
暴
抽
醒
怪
伟
鼓
耐
勇
倍
览
摩
赵
映
啥
译
梁
抢
召
肤
尾
默
插
聘
蒙
奶
珠
旗
阻
遍
森
粘
彻
宋
衡
炎
氧
搞
闭
迪
咨
暗
梅
鲁
挺
窗
沟
淡
仙
纷
巧
泡
君
券
亡
瑞
龄
杯
塞
伊
阵
猪
繁
潮
孕
贯
塑
添
隔
轴
圳
娱
膜
燃
惯
寒
凡
丁
妻
伦
嘉
刊
豪
截
偿
震
莫
唯
辅
舒
舍
债
虎
残
废
罚
朗
胞
婆
扶
谷
锅
徐
湿
贝
赏
敏
摘
猫
抱
递
殊
奋
毫
剑
横
缓
杰
洛
澳
丹
绕
鉴
敬
董
郑
浙
迅
嘛
烦
锁
宇
菌
裁
亦
诊
盐
朱
凝
兼
洞
泛
腐
腾
顿
刑
泉
忆
慧
秒
悉
晓
腿
勤
磨
宿
羊
灾
骗
昌
紫
振
娘
壁
俗
凭
诸
迹
誉
於
驱
替
萨
偶
珍
泥
泽
焦
跨
煤
浓
灭
拼
鞋
氏
呈
脉
秦
尺
涨
汤
迁
杆
耗
恐
赶
侵
鬼
潜
帅
爷
稍
宾
伍
胎
欲
炼
敌
甘
岸
赢
鸟
仁
甜
灰
辛
幻
井
弄
署
摆
扎
闲
纹
籍
乌
俄
桃
喷
拜
伯
抵
恢
隆
戴
苗
循
瓶
呵
柱
虫
铺
晶
兄
淘
旋
贡
裂
肌
疼
苹
暂
拔
遭
坛
旁
覆
返
恒
扫
滴
柔
脂
貌
涂
拆
嘴
删
寸
薄
忍
墨
瓦
趋
漂
拓
麦
函
狂
坡
荷
凤
竹
凉
枪
尿
瓜
為
冒
寿
睛
桌
倾
旦
浮
昨
後
曼
捷
杜
腹
坦
沈
欣
忠
胃
杭
颗
筹
锋
援
悲
晨
姆
國
轨
岩
莱
惜
凯
奏
缴
吹
肠
勒
磁
骑
疫
壮
炸
陪
會
陷
篮
漏
哭
碎
吨
伸
逃
宏
绘
盾
尝
徒
殖
框
仿
弯
玻
洪
嗯
辉
遵
粒
廉
胸
脏
魂
璃
赔
徽
剩
乏
尘
稿
孤
厉
肝
偷
谋
仓
巡
乳
硕
纠
萌
摸
闪
忽
螺
琴
绪
霸
拒
履
逼
浅
炒
迫
腰
袋
晋
槽
辣
溶
畅
撑
栏
尖
厘
耀
挖
辈
寺
艾
闹
棒
肿
郭
蜜
鼠
铜
粮
谱
踩
兽
癌
菲
妙
垃
炉
邀
圾
奔
夹
鼻
赚
涵
夺
锦
榜
胆
钻
梯
擦
驻
斤
粗
仔
亩
辞
溪
纵
吐
坑
碰
陶
谐
奉
宅
渠
伏
剪
昆
戒
哲
逆
厦
枝
摇
允
跌
祥
跃
泪
劲
曹
盒
寄
滨
悬
羽
辽
猜
碳
時
赖
這
牢
盗
腔
穷
卓
吊
牧
齿
蒸
扰
堆
宠
柜
炮
纤
燕
柳
妆
娜
垂
丢
忧
番
悟
疆
缝
酷
乃
拖
嫌
陵
矛
踏
筋
叔
個
學
熊
彼
葡
邦
搬
凌
牵
桂
挡
肃
串
雕
朵
滚
來
割
壳
姑
盆
俱
撞
辖
迟
氛
佩
盈
卧
芳
崇
醉
陕
碍
皆
携
邻
汗
纽
俊
胖
莲
乔
疏
薪
爽
斜
姜
瘦
肺
袭
肾
毁
烂
丑
眠
姿
焊
郁
艳
愈
舰
玛
臣
魅
渡
灌
赋
砖
浩
姻
匀
押
旺
抑
拳
稀
煮
黎
冻
瓷
箭
骤
锡
郎
御
旨
怒
仰
芯
恰
役
侠
阀
魏
奈
埃
娃
鸣
肩
辨
捕
裤
阔
荒
拨
兔
砂
滋
揭
遥
骂
狼
滤
赤
萄
亏
雾
锻
斑
慈
慕
猛
衰
肖
椒
贤
艰
與
浦
饱
幽
厨
堡
岭
晒
辩
泵
匹
颖
叉
扮
犹
恨
墓
欠
迈
糊
矩
沃
碑
厌
浆
飘
荡
蛇
桑
悠
囊
邓
撤
悦
丈
渔
撒
翼
孝
眉
讼
聪
瞬
傅
岳
鹿
掘
垫
耕
诞
婴
俩
發
帐
瘤
嫁
庙
慰
蒂
烤
疯
卵
坊
踪
塘
浏
蔡
棋
玄
侯
霍
赫
抛
莉
孟
赠
蔬
汁
傻
悔
铝
贺
颈
擅
屈
廷
仲
慎
埋
逻
肚
纲
咖
殿
帽
扇
狱
妖
浴
寓
棉
柏
渣
韵
蜂
怨
卸
腺
弗
惑
們
淋
對
晰
耶
萝
催
柴
邪
赴
挤
曰
硅
叙
忌
泄
诱
亭
丙
傲
碗
辰
捐
夕
卢
酱
犬
饼
锐
颁
契
欺
業
贾
倡
淀
暑
尸
脾
芝
燥
爬
喊
丧
漆
筒
勾
披
咋
赁
谨
叠
伪
浸
抚
狐
驰
苍
堵
碧
動
赌
臂
卜
猎
叹
绑
蓄
過
湘
虹
涛
咱
拌
绵
咬
窝
扭
妥
吕
壤
伐
痕
朴
渗
桶
翔
吓
峡
葛
虾
馈
惨
曝
涯
唤
淮
纺
缸
喻
袁
麼
椅
帖
宪
喂
呆
弘
鹏
昂
彰
醇
弥
經
裙
氨
绳
冯
糕
猴
敦
炭
夸
堪
舟
疲
鸭
陌
鸿
葱
脆
株
萧
哒
泳
玲
抄
狮
胀
丘
狠
劣
抹
芬
仇
啡
铸
逸
晴
栽
蹈
寨
柯
罐
愉
祭
翠
霞
芽
宙
罢
铃
開
帕
贪
罩
凶
硫
扑
酬
茂
阁
勃
舌
嫩
吵
涌
腻
鼎
漠
腊
沪
劝
毅
蒋
咸
說
霜
巷
妃
現
颇
逢
栋
臭
匝
凸
寂
浇
晕
汪
馨
彭
肪
抬
袖
熙
渴
胁
盲
笼
巾
削
洒
缆
韦
宴
弦
枚
谊
蚀
煌
凰
恼
愁
區
锈
滩
潘
募
蛮
桩
枢
泌
畜
悄
穆
乾
辐
電
廊
衬
丸
機
钙
稻
挣
裕
懒
闷
侦
钉
莎
秩
饲
兑
蝶
咳
長
哎
儒
坪
摊
铭
逝
娇
棚
怖
鹰
膏
吾
逊
遮
琳
兆
體
葬
惩
龟
钮
穴
橡
惧
钓
巩
蟹
泊
纱
丛
诈
隙
贼
菊
劫
烯
敲
奴
兹
氢
溢
侣
莞
竖
茫
饿
噪
肢
搅
踢
梨
跪
鹅
碱
勿
坝
衔
逗
羡
吞
咯
呗
恭
匙
霉
熬
菩
轩
姚
惹
間
庞
潭
掩
當
躲
豫
崩
嘿
氯
佐
搏
吻
祸
逾
歉
虐
姨
戈
刹
鑫
粤
詹
怜
哀
轰
滞
旬
芦
茅
昏
昭
钩
藤
烫
暨
唇
膀
關
厕
將
蕴
捉
郡
場
翰
鹤
拘
剖
缠
谦
撰
凑
刮
拾
杠
妮
抖
躺
翅
僧
瑰
醋
隶
勘
進
遂
筛
帆
攀
屁
無
渊
摔
畏
哇
棵
枯
隧
實
巢
庸
芒
枣
蓬
叛
靖
坤
內
愤
雀
牲
薇
樱
瓣
菇
阐
痘
蒜
尬
辱
憾
骚
诵
轿
戚
資
溃
爵
怡
衍
砍
禅
谅
舆
侨
奢
斌
蓉
媳
酵
骄
玫
脊
撕
磷
耍
佬
钥
衷
酯
熔
梳
陀
炫
苑
妨
沫
扔
荆
瑟
匠
酶
旭
泼
奠
捧
盼
栓
羞
卑
逛
辟
崔
弊
煎
弧
艇
沧
窄
尴
浑
婷
斩
爹
擎
僵
绣
宵
蕾
挽
磊
冶
闸
灿
锤
敷
慌
點
椎
扯
杏
誓
澡
剥
铅
蔽
還
匆
歧
痴
壶
萍
咽
遣
砸
挫
裸
赐
卿
郊
翁
產
乖
秉
扁
屠
員
營
喉
伞
桐
涤
捞
闯
躁
汰
薛
糟
狭
哟
沒
裹
瞎
務
斥
竭
咪
號
柄
膝
绒
蜀
凹
捡
坎
颠
茄
蜡
谜
溜
趁
懈
宰
膨
姬
沸
瑜
娶
痒
琪
罕
闺
計
冈
嵌
仗
並
歇
牺
旱
厢
勉
酿
髓
苯
薯
纬
杉
矮
谭
啤
禽
橙
梗
應
枫
雇
粥
茨
愧
锥
谣
衫
灣
琼
種
設
寞
網
坠
弓
窃
舶
韧
甸
粹
從
臺
夷
贞
樓
爪
豹
屯
帘
冀
項
讓
車
瑶
镀
绎
婉
侍
茎
東
蚁
卦
拦
唉
雁
彦
塌
锌
氮
泻
惟
钠
訊
烘
慨
渝
焰
珊
屡
莹
嘻
崖
胺
數
甩
報
奸
澄
勋
樂
祈
矣
湛
窑
顽
棱
沾
枕
據
粪
黏
愚
麟
菱
驳
寝
墅
晃
驗
兩
崛
耻
矫
歪
滥
疹
淫
禄
酮
師
淑
艘
皱
霆
硝
預
峻
灶
巫
書
選
碌
樣
饶
腕
贩
嗽
竣
睿
烹
咒
簧
洽
刃
屎
殷
媚
彬
愛
捏
獎
鸽
鞭
寡
兮
拱
棍
褐
昔
涡
橘
盯
嘲
屑
颂
痰
邵
澜
喘
阜
佑
庚
栖
沂
甫
贱
舱
牡
拐
襄
挪
顷
吟
抒
潇
沥
統
诀
蹲
亨
題
挨
稽
伽
骏
問
仕
堤
乒
棕
蛙
莓
華
肆
蝴
魄
嘱
娟
撸
撼
砌
钦
涩
揉
專
尹
裔
碟
讽
栅
垒
绸
楠
撩
萬
巅
運
鄂
門
丫
疮
處
蒲
傳
谎
別
鲍
闽
岂
蠢
蛛
栗
咏
導
垄
妄
結
贬
贿
幂
饺
脖
揽
冥
術
芙
總
溯
缅
哼
敞
評
笨
赣
俯
呐
饥
瀑
勺
匪
泣
濟
鸦
炖
汕
卉
琐
邱
掀
蚂
埔
钾
暮
喇
仑
頭
缀
風
肇
創
烛
醫
煞
彤
趟
佣
氣
梭
達
蝎
禹
觀
卒
瘾
變
蕉
藻
孵
隋
袜
拯
約
冤
卤
昊
舅
蚊
錄
雯
掏
呕
倦
柿
芜
認
雌
沐
幢
笛
熏
見
葫
坟
萎
黨
瞧
戰
單
邹
磅
雍
榆
汝
皂
記
蚕
類
耽
甄
蔓
驴
祛
奕
氟
請
俺
挚
寅
裡
焕
遊
馬
視
斋
潍
昧
廖
論
稚
畔
庐
毯
哄
黛
線
團
睁
鳞
亥
嫂
仆
籽
醛
邑
矢
袍
葵
沛
穗
鞍
簿
俭
槛
嗨
話
瞻
辜
帜
喀
焚
吁
贮
旷
颤
強
戳
禾
狸
義
锯
缔
沦
靓
購
廓
屌
價
糙
琦
逮
奎
耿
翘
姥
蹄
恳
堰
倩
蔚
榴
議
霖
圖
肛
參
組
匈
傍
畫
淳
犀
扒
睐
芭
酥
诠
虞
笋
邢
筝
睹
侈
劃
辦
玺
哑
吏
園
祠
馅
绞
椭
烷
淹
節
荧
聯
妒
禧
焉
兜
亞
畴
喔
帶
胰
妍
茜
壹
搓
則
铲
芹
窦
倪
楷
腌
崎
際
沁
標
叮
凄
秤
蜘
孜
屿
绽
蝉
肴
俞
癫
叭
質
丞
摧
腥
匿
捣
檬
驼
尧
锂
胚
給
吼
祀
噢
宛
費
瘫
測
黔
栈
剔
晗
娥
瞒
檢
镶
敛
柠
坞
侃
糯
乓
窟
樊
讶
藉
妊
熄
畸
浊
調
棘
該
攒
靴
戊
觅
迦
壓
厄
韶
責
翡
嘎
淤
狄
晖
尉
權
銷
涅
躯
昼
灸
嗓
媛
肋
許
夯
稱
張
陋
悍
怠
渍
埠
锚
棠
娠
規
乞
喵
掠
苔
膳
轧
扛
哨
荔
呜
缚
連
嫉
岚
祁
語
荫
聂
梓
舔
眾
癜
捆
惕
墩
懿
朔
轉
澈
倚
哺
啸
漓
璐
缕
拢
鲤
續
鐵
歐
斧
堕
杞
蹦
疤
淄
瞄
镁
層
渤
垢
條
嚼
迭
爾
溺
汛
魁
渭
廣
葩
啪
伺
梵
髦
灼
執
梧
靡
兒
郝
菠
喽
證
挠
汀
喧
溉
哉
漳
隊
骆
俏
廠
蘑
軍
級
昕
疡
琅
眷
劈
嚣
賽
瞳
邯
烁
嫣
苟
曦
絮
蹭
橱
覺
牟
趴
帧
赎
萃
苛
僚
诛
裝
沼
環
稠
盏
凳
拭
韓
竿
痫
嚴
筷
稣
習
霾
泸
舉
縣
榄
钧
憋
朽
軟
劇
卯
瑕
皓
杖
藝
難
麒
鄙
歷
酰
饪
瞩
巍
領
釉
脓
熱
钝
翩
俘
垦
藩
凿
囚
遏
衛
碾
臀
蜗
聆
窍
榨
拇
澎
迄
製
诏
逍
決
彪
親
磕
備
阮
诶
豁
篷
辊
睦
優
鎮
桔
颅
寇
恤
較
炳
诡
钞
冉
滔
矶
飙
淇
豐
郸
妞
扳
祷
芸
額
暇
訂
嗜
嵩
龚
璋
訪
歼
琢
戲
眸
陇
呦
雏
酚
維
滿
绚
檀
晾
弈
哗
驭
茵
獲
枸
娅
蕊
阎
崭
煲
紊
貨
橄
峨
痹
脐
汾
檐
卻
鞠
谍
桓
納
椰
馒
麓
槐
驿
藥
绅
酌
噬
翟
賣
肘
織
舜
棺
汶
钳
琉
滕
寥
拧
識
頁
霄
聲
稅
渲
幾
藕
離
酉
館
讳
羅
鲸
孢
護
羁
阱
圭
恍
窥
彝
臨
渺
壬
陡
嘟
殴
猩
珀
懵
拂
骼
涕
帷
鄉
試
坯
徵
捂
黃
廿
钛
蝇
陳
龍
梢
轼
丨
绥
咕
撇
铬
斐
哮
讀
骁
瀚
勞
睫
惫
柚
療
颐
掺
碘
佼
紀
裴
狙
樟
靶
兢
職
镑
篆
娄
瘟
戌
诫
趾
噩
侄
芋
搁
羯
皖
饵
闵
幣
侮
厥
興
倘
紅
歡
晏
叨
膊
穹
輯
洱
屆
極
冕
猿
協
亢
汲
毗
莽
蘭
跋
韭
茹
確
邊
洼
僻
恺
咩
耸
準
枉
訓
掷
垮
尋
揣
砼
曙
歲
蚌
歹
绊
礁
雙
顯
胳
編
萱
蘇
巳
庶
氓
咧
譬
鲨
璧
锣
盔
烨
荟
眩
粽
瘀
陽
坷
範
绮
弛
庇
炬
愣
秃
屬
聋
覽
濒
審
匡
拙
適
躬
鹊
倫
祺
輕
姗
蔗
岔
隨
疵
寫
柬
妾
盎
丐
仄
岐
缤
莺
麽
買
輪
態
绰
庵
養
剃
纶
烙
镖
暧
潢
寶
響
蝠
閱
啃
戶
闫
襟
湃
嘘
薦
窜
胱
癸
浒
嗣
簇
築
講
嗅
莆
笙
慶
娩
砺
雜
獨
徊
圃
鳄
聽
陨
秆
豚
绯
褪
滇
啼
炙
遠
碼
簡
檔
凋
咀
毋
悼
聖
磋
課
拷
徘
細
沽
終
螃
唠
溅
锰
晟
瑾
乍
烊
剁
窖
痔
噜
噗
廳
恕
蠕
峪
哩
瞪
階
瑚
鸥
晤
姊
羲
墟
鳍
馏
颊
爭
韬
拽
苞
羌
莘
淌
驯
箍
構
戎
狀
聞
粟
坂
珑
恪
臻
犁
泗
詢
酋
茸
婿
朦
嬉
毙
钰
抠
呃
胧
惰
勢
燈
凛
铂
徙
拣
斷
刁
癣
裳
佟
溫
秧
蝙
栩
丶
绷
篱
榕
筐
眨
颌
孽
雖
镍
財
慑
漱
垣
琶
唑
柑
玮
農
泾
秸
汹
唾
掐
況
鹃
娴
缉
氰
疚
昵
亟
町
虏
腑
菏
扼
阪
蜕
刨
恬
銀
復
積
衢
蛤
芥
壯
佚
須
擒
磺
褒
芷
铣
薩
峭
揍
怯
俑
係
肽
茉
鍵
夠
漸
璨
僅
镯
慷
辙
褶
貂
剿
頂
摹
焙
唔
絡
粑
笃
酪
陸
耘
禮
辕
菁
貼
盤
釜
億
腋
怂
庫
鋼
煜
載
憬
險
涧
捍
憧
瘩
嫦
攝
疙
缪
癿
咚
島
璀
痪
硒
掰
濮
砚
沌
腦
蘸
鹦
負
惶
漾
註
苇
琵
赘
嗎
昱
禺
靈
苷
詳
糜
烃
偉
伶
咐
淆
胤
婧
衅
焖
婦
稼
鳌
谛
炽
颓
萤
挛
錢
楞
宦
谴
螂
虔
咙
谏
眺
桦
汐
飛
抉
唧
苓
脫
涝
妓
觸
涟
擊
喃
薰
夭
噶
痣
岑
佰
耦
匮
搂
烽
窒
峙
獻
璇
纂
屹
譯
諾
铠
鹉
穩
睾
礙
祯
羹
楂
減
沮
黯
孚
幫
驹
蔷
絕
辗
麗
秽
阑
擇
啧
鹭
吱
诅
茧
槟
赂
膛
傷
謝
赃
踝
铰
炜
朕
龈
討
頓
砥
痉
腮
闰
誤
峥
擔
補
猥
懦
阙
毂
晦
谬
皋
狩
蛾
殡
篡
戮
蕃
遁
眶
狡
鞘
匾
憨
疱
兀
惬
揪
週
繼
眯
瞅
裏
敖
異
桨
錯
钗
毓
叼
哆
叽
夢
飯
儀
札
嫡
诣
挟
圍
媽
熠
蓋
麥
曳
辫
衙
孰
跻
魚
亂
遴
換
談
珂
舵
俐
榻
鲫
捅
瑛
悚
雲
炊
缭
鸳
赦
顧
綜
粱
荀
採
岱
願
婪
溴
皿
鄭
潼
焯
酝
簽
诲
嗷
赡
陣
陛
谚
憎
缮
悸
茬
铮
吖
蔑
贰
蒿
宸
監
瑙
鐘
吝
靳
損
棄
勵
鸯
辍
屉
俪
逅
氪
癖
珞
熹
蹬
壕
邂
霓
殺
撬
怅
琥
練
荼
侥
冊
偕
骸
宮
遐
棣
玖
踊
扉
咔
災
冢
丌
叩
茗
宕
婶
倔
榮
辄
羟
煽
郴
隅
勝
瘙
邃
嗡
匣
禀
淬
羚
雞
隱
汞
魯
揮
钵
猕
彷
呛
擁
渎
琛
嗦
窘
悖
厮
圩
袱
楔
隘
礎
寐
瞭
囱
燒
擂
殆
訴
铵
奚
戟
呱
崽
醚
豌
惭
滁
盡
寬
痊
囧
跤
弩
霹
諸
猝
嘞
筆
溥
拎
嚷
蛟
寮
峦
馋
曆
嬛
殉
順
惚
萊
馍
蚝
殇
媲
坍
悯
忱
瞰
骇
葆
袅
蜓
锄
玥
嫖
籁
齊
違
鳳
蜻
曜
樹
椿
浚
忏
筱
箫
礴
螨
娲
膚
揚
咎
疣
嘶
戍
漩
箔
咦
蛊
泓
潺
腱
壽
睑
俨
釋
笠
挝
裘
摒
炯
诬
蜒
忻
竺
瑪
冗
囤
帛
簸
磐
骋
胥
繪
痞
掖
婕
葉
钊
砾
邸
谤
剛
匯
侗
丕
萼
縮
瓢
荤
谥
攘
硼
祉
撮
膠
芍
孫
傣
镰
啟
緩
綠
斓
漪
劉
惋
爻
枭
娓
雳
飲
絲
寰
鸠
擬
憩
紛
嚎
鹈
鱿
懷
铎
奧
湄
漢
诃
迥
翌
褚
嫔
惮
痿
紹
鏡
緊
貴
淼
酣
跆
蜿
熨
斟
褥
搶
坨
飾
惡
堅
薏
輸
袄
嘀
蚓
芮
芪
亳
吳
濡
靜
鳖
轶
涓
壑
锭
稷
逞
啰
藍
潛
濠
蓟
鬓
迸
橋
啄
飓
驚
惦
蟑
吋
倭
罹
扦
廢
腸
萦
煸
榔
绢
舊
妩
莅
溝
钨
谕
競
痢
隽
怼
颍
暫
皙
籤
陂
瓯
谧
覃
蛀
栾
戛
骷
绛
奪
佈
蔼
渚
瞿
債
畢
茯
匕
詞
脈
濃
髋
髅
涪
膺
敵
垛
煙
矗
疸
婊
圓
毡
纫
羿
漯
茁
祎
遛
镂
羔
嗒
矜
賞
哔
琊
觑
浣
跷
攸
蚯
踵
廟
贻
嚏
吩
槿
蟒
粕
甬
诧
蟠
歸
踹
臟
吡
迂
侏
恃
臧
蔻
璞
糠
炅
懊
荚
筠
叁
閉
昙
迢
烬
婺
幌
針
栀
沅
皎
盂
鮮
帼
斛
踞
沓
捻
沱
樵
嬴
詩
腳
翱
吒
佘
镐
亵
喆
疝
馀
貿
啶
拴
遺
弼
皈
喳
臼
曉
涎
趨
猖
抨
惺
蜥
餘
缎
铆
傀
劍
鸾
瀛
阖
徑
诽
蟾
皑
搐
擀
蕨
讹
頻
砰
鳝
犊
蹊
溧
咆
惆
铛
奄
憑
碩
悴
锵
轲
貸
蠡
蓓
輝
楊
唬
譽
啮
荞
蟆
涣
钴
彈
鼬
徨
贈
憶
亘
馥
瓮
嗑
偃
殃
讥
憂
緣
袂
儡
顆
淨
蛰
讴
蔺
罰
蚤
楹
敗
涮
幺
遲
啬
炕
脯
潦
憔
艦
漕
臉
诟
厝
臆
狈
甥
祐
趕
叱
讪
漲
疟
殘
婢
瞥
煦
貢
榈
喱
嗝
霏
績
敕
遷
卞
簪
誠
陰
輛
筏
沭
忑
阈
燎
跡
捶
飒
鎖
伎
忐
駐
鄱
翎
祟
擺
猾
侬
彌
虱
汴
鄞
濑
咫
芡
蓮
绫
讷
誰
谆
紙
槃
弋
歆
淞
輩
睢
猬
纣
壞
蕙
奮
拈
箕
岷
惘
黍
裱
兖
膽
茱
谙
艮
旌
塾
忒
閃
慵
骥
嘈
笺
滦
腓
唏
砧
孺
瘠
痂
钼
嬷
豉
胭
榭
铿
擾
粼
诋
缨
冽
暢
彗
鳅
湍
蜈
膈
娆
吠
芈
扈
耙
肮
籌
猶
浔
躍
酗
荃
徇
診
崂
蝗
寧
貧
笆
吭
茴
戀
淅
鬟
雉
拮
吮
捺
莒
嘗
阂
鞅
蛹
衝
浜
純
胫
胯
佗
妲
铀
桢
遨
複
鍋
炔
捎
荨
虛
謂
仟
擴
枷
娼
勐
瘘
藓
鬆
雹
诙
貝
獄
芊
涿
骡
赅
呻
賓
噻
蟲
鳃
拗
襲
螳
貔
塊
矾
諮
鲈
劾
馁
鑽
蹴
唆
镌
呸
钯
莊
睬
嘤
觞
嵘
桀
袒
奘
罔
砷
鳗
灏
肱
帚
罡
貅
涸
閣
夙
湯
呤
昀
鬥
诩
剌
隍
腫
怔
籃
昇
鸢
迩
诿
潞
艹
骞
誌
荠
羧
餅
喋
痤
夥
钣
阉
馄
蹤
窮
翊
娑
蚣
忡
喬
杷
钡
辭
恣
岖
龋
禪
宥
婵
粳
腩
姣
饨
缇
枇
洙
碉
烩
掃
噱
恙
姝
傑
淚
蛆
淖
搪
瘪
吆
獸
幡
骅
偎
邕
慮
腎
獒
愫
祂
谩
恆
郫
桧
焱
锲
霁
鬧
収
咄
锢
俸
邺
搀
輔
蚩
谟
騰
泯
岌
嗪
鴻
脍
琰
麝
賀
璎
谒
炀
嗔
眈
颚
髻
壇
犷
佔
缥
繞
郵
骊
逵
褂
阡
齡
骰
嬰
纨
漁
紐
龛
箴
麵
柒
砝
蛎
麾
劑
缜
饷
桁
蟋
缈
賴
臃
蟀
塵
瞌
鹑
晔
赈
澤
晁
铢
掂
潔
蓦
镧
巽
垠
驅
袤
飽
裆
濱
邬
驮
珈
隻
窈
荥
珅
瘋
蝌
鲲
嗤
泞
纭
咤
烏
蚪
怦
偵
顏
騙
饕
湮
喙
槌
蚜
腆
贊
衮
邳
堑
掣
爐
搔
酐
缙
魇
敝
髮
疽
舷
苒
貫
莴
叟
奂
嘌
黝
凱
摁
勁
販
榷
嗟
弑
斡
錶
颉
瘸
緒
戾
邛
璟
娣
梆
愕
闾
嵊
暄
縱
聰
敘
霧
鹕
渥
蜚
漉
罄
藐
澧
饽
樽
蕭
镉
呎
裨
挞
瘁
滅
萸
篓
泠
慣
颧
藜
鳥
阆
榛
筵
坳
柘
妳
郜
泷
俾
洮
窿
貓
邨
蜴
畲
誕
钒
骛
苋
幹
徕
婀
芩
蹋
喪
伫
軸
隼
蜷
刍
珉
醴
辘
窕
岫
挎
痈
泱
庾
鹌
琨
耆
噎
瘢
鲶
矽
痧
孑
蹿
牦
璜
夔
旖
腭
谪
钎
豬
盜
貪
旻
呂
赊
徉
邋
镭
懋
畿
儲
娛
寵
洵
燮
锆
鍾
钜
笈
劢
埂
氦
徜
旎
杵
哽
晌
舀
掳
嚓
湟
谌
撥
啾
咿
篝
畦
矸
牽
膑
遙
盃
鄰
鬱
熵
獵
鄧
暹
腼
駕
甙
噴
嶂
鸵
仨
嶺
铉
祚
阚
耒
闆
桅
匍
濂
橇
郧
嗖
脲
懼
閒
銮
骶
崴
霎
狞
贲
珲
賢
脅
側
氩
蓑
灞
遢
锉
蘋
黜
躇
胄
锹
琏
抿
橫
杳
忿
帳
啉
轄
馗
擢
讚
噫
珏
腈
攥
玑
擞
嘹
穌
飚
屍
幔
珐
龜
芎
騎
鋪
踌
鄢
雎
铐
鹽
嶼
碚
頗
冼
搽
镊
爛
蛳
迴
偌
儋
藿
诘
潤
栎
匐
沣
荏
歙
綱
鼾
懸
栉
誘
驸
綦
麸
讫
煨
莪
棟
獗
镗
掛
鈴
呋
佃
枳
焘
蕲
睽
餮
邈
煩
桡
妤
饯
卅
碣
嚇
罂
趙
澹
恿
霭
賜
瑄
褲
珩
籲
拄
陲
剽
仞
濕
骐
軒
戬
盅
祜
珺
莠
瘴
蔫
叻
箩
濯
鸪
孪
绶
跺
遜
罷
狰
搖
楣
謹
鹫
垭
頸
鹂
偈
猷
凍
囿
蘿
蛔
蝈
铨
螢
揖
涞
萋
苣
厭
骈
鬃
拚
榫
嘅
贏
錦
垩
诰
跚
齒
聿
蜃
鹄
谑
颦
撂
誼
锏
儘
撷
鹧
恻
麋
峒
幄
槍
牍
彧
哌
绾
憲
鞣
厲
蹉
併
颞
谗
纾
煅
菅
迤
槎
桿
甾
毽
睇
昶
糅
嘧
鹜
桉
郢
佯
繳
掬
镳
禍
牒
貞
牆
衩
迚
玷
脘
葭
捋
咲
蛭
螯
萘
蹒
攫
鳕
牠
喹
谯
噼
廚
苜
蹶
獭
盱
蛐
亍
沖
撐
頒
佝
甭
廈
撵
託
祇
駛
胛
菡
缄
蹂
糗
偻
蓿
轭
鞑
焗
玟
臾
觊
嵇
斱
枞
碴
嘆
枋
醺
喚
翦
菖
鲢
汩
抡
郓
跖
踮
蚱
擠
汨
绔
櫃
砀
甯
唢
謙
跛
庖
賈
舫
苄
摞
剐
蘖
跎
怆
氙
觃
溟
锑
翳
罵
糧
氲
糍
郦
邁
蝦
岙
掇
泫
荻
瓤
鴨
膘
厩
蜇
宓
堇
煊
盧
謀
稞
楮
阕
傾
朐
擘
颛
彎
骜
仃
坻
臊
撫
缰
燊
諧
柞
鋁
瓒
绦
綁
颔
涼
芾
虢
銅
躏
撅
豺
眙
溏
靛
傩
堀
馮
哧
鹳
軌
徹
攜
壘
鑑
蹙
铈
癞
偽
鏈
憤
蔥
啵
繩
俟
祕
琮
爺
邝
擋
荪
疊
滾
扪
勸
氤
觎
泮
邏
毀
岡
苡
礦
滓
鲛
祗
晉
澍
賺
臵
掸
潴
綿
髂
鎏
赓
鷹
紋
滘
磬
墒
沏
茲
绀
郯
遒
爲
驟
椽
膻
獅
羸
淙
遞
虬
飄
樾
俚
鏖
燦
簌
觐
咛
碁
顼
墉
惇
倏
茏
潸
駁
苻
蠻
傥
镕
鲑
嗲
縫
桎
瀏
葺
颢
葚
悌
肅
膦
鲅
姹
铤
俠
櫻
塬
僳
倜
腴
螟
郅
蜍
畈
瞠
嶙
壅
踐
祢
臥
梏
浠
償
倉
荸
啜
繫
氵
鲟
鍊
凇
蒼
劵
仝
乊
檄
孳
佞
燧
爰
飨
锺
僖
赭
悅
墊
舛
醬
唁
蹑
犒
耄
鋒
稔
稹
滟
佤
陟
琬
疥
渑
呷
踉
跄
趸
峋
遽
薑
箐
譜
龌
幵
釀
詮
镝
銘
謎
艷
髯
淺
晞
蒴
杈
遑
犍
瓴
崧
潰
楓
欄
硐
茭
磯
闖
酞
崃
蒽
彙
驷
胍
氖
殒
砭
眦
尕
欽
谀
纖
埕
淦
踱
埭
惴
粲
舖
兌
霰
痨
讣
濛
铡
狒
蹇
衲
钺
钕
柩
蜊
蓼
罘
赝
蒹
鲷
夾
窩
揩
楫
滢
懶
姒
譚
頌
谄
骠
缢
傢
鬣
裟
龊
蕩
蒐
嗳
疃
蔣
谲
嵋
崮
盹
餓
洩
蝼
钏
潋
哙
囡
赟
蹟
袈
饬
锟
誊
淵
酊
岘
闱
蜱
恁
谡
肄
锷
肼
獾
煉
剝
砒
窠
焓
戦
咻
啕
薨
刎
镓
橹
繇
檩
獠
舸
耷
卟
钇
惱
猗
鹘
崆
蓖
稗
嬌
雒
诂
誦
撲
陉
讧
鵬
豇
氐
憐
兇
鳴
瞑
篦
靥
醜
鵝
峽
鼹
滂
埚
盥
钤
砲
锗
緻
趵
佥
誇
瓊
刽
肓
葳
俎
乜
菟
蒡
弭
赉
帥
謊
恸
瑁
耋
囗
勳
咂
殓
辯
髌
銜
吲
菸
钿
蠹
傈
篙
飕
坩
椁
姦
蔔
灘
醍
釣
揆
竽
妝
劭
饴
遼
瑩
潑
勰
豢
逶
镛
睨
慘
皴
摈
鑒
邗
嘚
堃
徳
暈
禱
藁
蓁
篁
纏
殼
孛
醪
廁
頃
珪
禛
癮
恽
飆
鲵
舂
犸
濉
侑
汙
圜
嬗
隸
铄
谶
気
齋
殁
菀
鬻
铳
衿
謠
诤
髙
绻
黠
疖
蝕
徭
僭
闊
崗
苕
秭
鍛
楸
洄
賭
沤
攤
郃
捨
紗
浃
靼
殚
醮
溆
褓
刈
崙
棂
饒
缱
辇
粵
穎
榉
鸬
窨
佶
娉
麂
谔
傘
秣
曩
嵬
謇
黒
伉
忤
墜
镣
铱
襁
岬
韻
犟
懑
廪
瞟
绉
圻
鳜
驕
鹞
滯
绡
邡
萜
醐
龐
哚
苁
孱
叵
丟
邰
瞋
汊
薹
馔
孀
苎
屐
氽
艙
訣
塗
骧
糸
炝
珙
苫
韋
贽
賦
纰
箬
棹
卍
臘
鮑
铟
盪
蓥
砣
嘭
獐
垅
侶
鹚
玳
暝
纥
鄄
峤
錫
釐
粿
慾
狹
甑
凫
晷
涔
墮
昴
籼
啖
産
峄
郾
悻
芫
椹
紮
杲
俅
賠
辋
衾
贖
湫
儆
弁
斬
捲
缬
碛
僑
貉
瑋
襪
鹬
衄
羰
欖
鳟
繹
聩
庑
沔
锶
痼
凈
挈
疳
廂
蹩
滲
闳
芨
悱
飼
蚧
蘆
舐
篾
亓
赳
駿
丿
彥
樨
箸
莜
鄯
矚
欤
馕
珥
鹗
颏
鉅
爨
笞
楝
耨
轟
锴
庠
轸
髁
锛
忖
怏
桠
恥
迳
槭
旸
魍
糾
銳
琍
郏
氡
証
跬
仸
釘
倌
芗
噸
铋
醌
摺
諜
炁
铖
犄
瑗
瑤
呾
澀
黟
艱
阗
勖
鸩
囉
愍
笏
昉
鼐
颱
喏
骺
跗
瀉
痍
蒌
檗
僮
橼
郗
蒯
蛏
嵴
枥
拋
螭
灬
槁
峯
斫
绌
魉
蜢
篑
芃
铧
淝
垓
褛
抟
襦
豕
鹹
筮
沢
豈
怵
炷
胪
杼
虧
岿
愠
檯
渾
裾
隗
湎
炆
螈
啻
圄
訇
癒
畑
捌
瓠
杓
汜
觥
樯
褴
磚
肟
钽
湧
挹
嵐
牯
穰
哏
狍
髒
伢
叏
刪
瀨
呲
鼋
霈
唳
妫
燙
仡
叐
峁
旳
酢
叡
魑
韫
囹
澶
実
鲳
聒
簋
砻
樸
腧
薮
叢
輿
跹
碇
荇
壺
茌
韌
蚴
鸨
蘅
棗
濾
酩
楽
碓
坭
喟
蠟
鈣
痱
璘
苴
繡
簾
曬
蚬
噙
箜
訟
膩
溱
菽
蕤
砜
唷
铍
诒
尻
蹼
噤
鲇
荽
蟻
诨
泔
榧
僱
圪
钹
闢
噔
渌
鯨
諦
綺
莼
潟
脹
妪
缛
寤
発
貶
鍦
逋
馐
睥
胝
錾
騷
茔
铌
籠
埙
旃
剜
箓
蕈
査
彿
辎
詐
濞
翕
樺
颀
洹
缶
虻
呓
茕
侩
漿
槲
饋
臬
恚
谘
椤
瘿
諒
頑
棧
椴
愎
謬
檻
蜉
妣
捭
旪
顛
壢
傭
垸
嬤
穫
悶
蛄
蛉
隰
葶
鳙
煥
喑
様
徂
孬
岀
笄
冇
聃
俳
砦
怙
荊
詠
噹
歎
堯
巖
凼
緬
笳
唰
曷
鲧
蝰
剡
闼
揄
筚
鸮
诳
佻
辔
滬
踽
忾
阊
竦
胴
筍
乂
莳
伝
桷
绺
邾
缁
嶷
頫
戕
挲
谵
俶
洺
掾
磴
邙
篌
癥
賊
鍍
橐
媾
蝮
嚮
垌
苌
嗬
灑
豳
畹
黼
侪
喾
覓
狎
疴
沆
犧
槊
逖
懲
琚
嵯
縛
嚐
鬲
巯
泅
饧
缦
濤
疔
燭
瑭
瑠
亊
蘊
泺
飢
嫘
簟
訾
関
镞
钚
樑
棲
濁
戸
彘
畝
変
帙
糞
驽
豸
鈕
莨
蘼
緯
镬
襞
恂
鳔
缫
鸱
濫
焜
嘣
鳏
箧
濬
穀
睞
趺
竊
牖
蝽
鶴
樁
賤
懺
镫
轫
秱
玠
馳
塢
酆
篩
寢
珣
屢
癔
氘
迨
篤
闩
嚯
毎
鐧
捱
铯
醅
鑼
豔
瑀
洌
垟
璠
逦
鸫
浘
稜
倆
塍
缟
阇
礽
僕
闇
纡
蟬
燉
咁
帏
琇
镒
蒺
蓊
瑷
稃
墳
怛
衽
瓿
骢
赧
胼
滏
媪
螅
菘
紳
羈
齣
檸
賬
颡
蚶
搡
囔
喰
禦
佢
蠍
浯
镦
俦
菰
滄
餃
対
逄
薙
逡
薅
罒
滹
嬅
玦
綾
纮
阏
隈
祿
訝
樗
垚
襯
珮
巻
磡
鈺
倬
圉
欹
締
殄
瞞
亰
愆
窯
讦
倨
噌
餡
蕖
刿
戡
卮
綴
墀
饗
罅
睜
茼
賃
莖
癡
撃
誡
丏
牝
帄
癢
唸
黩
蝣
奭
禎
鏊
悭
燔
埤
啭
絞
沩
穑
伱
掙
觚
戗
硖
埗
諷
紡
欸
鈞
吅
勻
赍
艏
縻
崤
鲎
綫
奁
纜
韪
樞
咘
囟
鲀
翥
銆
敁
籀
雠
薜
胗
骝
髡
茆
颙
圮
鬍
缂
囯
禳
馊
蠲
湊
淪
癱
爿
鈉
帑
啷
鉤
埼
闿
巔
瘰
銹
鸷
腠
醃
囵
啓
羣
缗
桕
輻
説
柢
滷
栌
旮
巿
囫
慜
鲠
魃
鑄
匏
翹
弢
崑
诜
钍
袢
跸
躅
乩
雩
镱
怿
詭
薤
荦
妺
勛
髀
疇
桫
瞽
眇
郄
硚
耜
秳
澱
踴
抻
郤
汆
铙
乢
腚
飏
咣
餵
忝
綸
鯉
陝
詈
铊
墾
窺
镨
鋸
噓
箨
菪
鑰
鹼
嬿
闡
悫
儉
斂
旯
氚
鑲
閩
氫
翮
瘕
毖
詔
羨
诮
檳
馑
缯
剎
嶄
瓘
竑
猊
聶
铒
枧
讵
戢
愷
緋
碲
枰
辂
啫
鲣
狷
轱
虺
跏
琯
鴉
疬
亶
鶯
鲂
唛
続
帔
徼
洎
赀
筌
丼
旄
龅
篪
燹
蓍
涠
黥
獬
铕
絆
摯
荑
衞
瘡
逑
峇
罴
昺
贶
曖
賄
碜
洶
哐
秕
録
螫
銓
貘
嘯
镥
乀
湉
栲
棰
钪
黻
亻
璽
彀
攪
貳
佺
諺
繃
訶
傕
癲
朓
駭
砟
柰
樘
摭
皲
橛
繽
鄣
驛
髹
馴
邶
赜
璩
塚
蔭
畋
骘
彖
旒
浐
洧
镲
閑
皺
陬
歩
垆
镏
撈
娌
笥
鉛
踯
崁
疠
啲
钬
撿
涑
苾
挾
铽
锨
艋
嶽
醣
缑
漬
擤
艉
囍
朊
噁
诔
缵
螞
嚕
円
阃
菓
鈔
攬
蓣
髭
犇
麴
恫
彳
膿
钐
甦
禿
柽
殯
煒
圹
钲
磔
侷
觇
増
嚒
鞏
浍
矯
骖
绂
辏
妯
禊
秫
胨
猁
愔
爍
萁
尷
攔
拊
埝
猞
粜
蔸
駒
逯
铥
矍
芘
釆
渦
垡
圌
癀
褻
镠
瘗
嘔
锜
诌
栝
邠
懇
蘧
嘏
忪
緹
笫
恵
炻
驺
淠
馭
彊
戓
盍
垴
兊
罍
醯
靺
脩
翀
谠
鬚
曈
杪
瀾
湜
綻
咗
栱
瀬
龇
迕
暉
曠
钆
閘
凜
缣
揶
戆
檜
鞨
壩
経
揠
岢
嶋
鈍
読
囑
硌
緝
鎂
厶
遶
氹
顫
蚵
冴
轎
閥
蛱
旆
砗
鎊
鞫
堞
靚
紓
侔
絨
椋
寳
锒
砬
蕞
箇
鋅
瘍
瓏
齁
檫
鈭
甪
锃
扌
橢
秾
桜
鉀
磲
鲱
乛
敀
倖
喺
単
毘
癬
譴
肏
丄
県
鹮
虜
黉
寔
恹
扃
硪
翚
埇
嬖
鮭
姫
笕
淒
瀧
鄜
箪
聳
珰
夼
燚
弇
薈
屮
姍
艿
閔
仹
庹
嘢
鯊
妁
籴
缃
鼍
綢
哞
囂
偁
逕
憫
暱
溼
瀰
哝
铩
漈
曇
蹠
僰
谮
窣
蒗
谖
軀
跶
哂
诹
鳊
掮
笤
竇
榘
掴
陜
兯
瀕
蒞
誅
鄒
廨
穸
舺
豎
敃
鲮
廛
邽
跣
蕻
葑
浈
蠛
枀
鴿
鋰
瑣
嫚
仫
叕
鏽
擷
愜
踟
牂
屦
茛
烝
睚
侂
駱
壟
曌
锝
玕
楯
缽
鹩
梶
糁
筲
硷
髫
堠
檪
伋
褙
婳
匱
孥
稟
諱
兲
隹
柵
埴
鍰
哋
駅
啞
頤
揀
矬
楦
咝
箅
蛲
奵
铑
勣
垵
辻
俣
蝾
擲
熘
谰
竄
巒
紘
浉
纴
萩
嗆
吽
咭
幟
阄
菔
癇
粧
儂
荜
撺
広
鳢
応
埵
昝
锱
薔
滙
叒
竅
毐
雋
衆
鄠
麩
疋
鉄
昰
諫
囝
疛
铗
売
浥
赑
鸶
豊
餚
璁
櫥
慄
銝
骓
钅
椟
瑯
飪
艽
鲽
瀋
圯
馓
鎬
挃
攏
嫪
廬
殳
銇
仵
禩
孖
瀹
嵛
挄
謗
漣
屽
鱗
窸
嬲
卣
吶
堺
槓
閨
栢
裒
腘
劼
陞
绗
袴
絢
邴
黢
黴
竜
刳
彡
嫒
臍
霑
仧
呔
鳎
艄
鎴
宄
埸
弔
丅
蹰
屄
廸
涙
刂
澆
鲭
鳐
坼
饸
眭
盞
糌
葯
酹
溘
怍
迓
閻
舢
瀣
箏
姘
詣
晝
屃
擱
宀
斃
诓
瘊
繕
肫
尓
詛
柝
墻
厍
趄
轳
満
嚨
叧
梟
蛞
饹
蛸
嫻
龢
趔
憊
綵
厣
鎧
嗥
淩
螽
毆
瀝
埻
賑
篠
埘
怃
歳
殭
泚
纛
鲆
亜
猹
龉
駝
阝
斲
痺
黧
諭
摻
蛩
暌
蛻
狲
鑿
鳉
巟
憍
褫
雛
嗚
鹛
鷗
偲
鲥
伥
廋
靂
硎
菈
窪
燻
忄
笪
冪
暻
怄
饑
顗
鷺
舾
頰
搗
鲉
蛴
孓
団
畚
頔
絃
堙
嬸
龃
榀
啁
枠
鴦
櫚
繆
蠖
擄
烜
蚨
搴
龔
帯
芰
蟥
瀟
枟
捩
铷
鉑
晩
蠊
綽
蝓
崀
湳
噘
曛
悪
佇
嘬
劤
柾
狻
唵
墘
兕
栊
膂
嗮
佾
嫱
凪
畀
錐
嚗
蓇
讠
尐
鱷
堌
谝
媞
辺
丣
殑
萏
蘩
犽
嚟
痠
刖
椐
覧
迺
黾
睺
鈦
郇
耪
嗇
込
煳
嗉
洇
葖
掼
暐
畊
齑
罟
侖
檎
垕
镄
熾
娈
荩
鞯
穢
玢
鼯
嘩
磾
炘
涐
氾
滌
匚
洸
坜
笹
猢
妗
翈
鬯
艸
嗫
儼
縈
繚
焐
辶
輾
浞
聾
悝
媵
玎
镔
玹
鼙
撓
瘆
崐
夗
蹚
鲔
穂
薷
籟
筘
総
溲
籬
锕
岜
魈
釵
胬
釁
蠶
澪
瘓
耵
貯
簷
揑
豨
袪
肀
蔵
籓
鵑
轍
蚰
侉
錳
鋆
剋
箝
聍
虿
纟
嘁
髏
屣
忉
餍
蟮
劬
鐸
褡
碶
絹
柊
淸
榖
牀
楨
杌
鲞
軋
検
鸲
骯
専
蝥
颶
蚺
仮
蒨
儷
幷
鹟
蠱
鍗
脒
潆
郞
饌
飧
嶝
粝
褔
诎
氅
齦
苈
髖
疍
倮
巉
荳
鹵
帰
殍
殲
莈
蠔
喈
旰
诼
婭
鏂
鏢
鹇
姪
旼
鏄
驢
吔
冏
蕪
箰
錠
酽
顱
誨
挢
鲩
歴
嗄
庥
黱
隳
蹁
皰
湓
芣
兗
沚
沵
啐
鲡
阷
勠
枨
隂
倥
镙
酃
屙
輒
忸
夤
鳶
龘
揿
铼
銃
鍪
搵
謁
歃
璿
馃
蚋
蒃
巪
謄
棻
絵
剣
猇
蚍
醞
鲋
絜
吥
埒
槻
轅
丒
塱
褰
瓔
絶
鍙
寛
祆
睪
姮
弒
卐
奬
疎
氈
茚
尅
锔
幛
暾
頹
錘
脇
唄
谳
悒
弅
卩
捯
抔
宊
椪
嫫
縷
薃
钌
嚅
蠅
鐢
滗
饅
攣
琺
鬘
詬
蠓
槤
遄
梃
鸸
岈
桴
蝸
儕
浼
傚
鵜
鑭
瀆
乗
戝
犭
炤
耧
哕
畛
燁
牾
鯛
袆
扞
嚥
毳
瀍
児
绐
毬
転
玘
殛
茑
剞
鑾
偬
闘
鏞
舳
鰻
筇
抜
粄
髑
阋
闔
蕎
糨
犴
鰲
鳩
図
隡
暠
甍
怩
鉉
僦
舻
釧
尢
饔
骀
罾
阍
蔘
蓐
隕
鮪
屺
慚
婁
醢
糰
螬
喁
膇
鉻
沄
尛
笮
湔
巜
栺
杢
弾
瑏
嗵
鹎
槸
杩
嗰
螵
覚
熒
顎
脷
攢
亙
綑
懾
庨
鳇
鹋
臸
翃
伕
仉
谂
柁
搦
萆
伛
拏
屾
贅
廝
禵
眄
痙
閲
繭
殂
鸚
槠
硇
湲
璺
泖
眞
卽
贛
榊
貊
匦
珽
蟊
枂
鼩
獼
熜
褊
痦
餉
佷
狁
樋
麈
觯
溷
葦
嫠
鯤
晡
圬
蜮
鸹
昃
鲻
廻
祓
釗
呒
嫄
垱
鵲
嗞
戋
鍏
裢
驊
竴
黪
朮
誹
觋
畠
猱
莩
囘
矧
顸
癃
筼
鸰
蜩
铪
裥
呖
胙
遘
愀
綮
愦
鹪
潲
鋈
闕
郷
琤
苤
譁
霪
岽
誣
夬
庋
踅
皞
髎
阒
堍
芟
笊
哓
敍
卲
稲
嫑
鵡
谿
徬
伧
坌
賂
鎌
丬
崞
喲
餾
攵
冋
陔
鎳
験
罨
惢
芴
嬢
雫
劻
镘
婠
愬
窳
卺
澂
檶
驍
摳
脔
觜
钫
輟
畎
莁
揾
颎
跫
鄺
帻
観
囖
葿
糬
贓
镚
觏
蓠
芆
璉
缒
蒟
芄
瘥
躋
泐
龀
亠
鏟
棼
饣
燜
悛
贠
檠
讬
粢
鬈
呶
鵰
熳
蕹
钋
獣
舄
蜣
龠
訳
郛
篼
価
鷲
癯
磙
礡
祧
夲
譏
礻
慊
碹
鹣
皤
袃
鏘
筓
栃
锇
鲐
槡
赹
鰭
姉
镪
倓
絳
菹
両
靑
媸
谞
洳
蒻
枱
缡
乄
肂
榎
峣
烺
皀
鈷
謾
幀
蚅
堿
楪
觳
瑢
锘
勫
険
嫵
筜
臌
搿
嗍
彽
笱
圏
凾
荛
埽
鈎
呮
鉆
訛
錡
塩
桄
湣
嘖
隠
砵
簕
冫
嚀
鹀
汭
镢
棨
鮨
撻
涘
蟛
岣
蝏
咼
辚
覷
膾
仦
桤
朧
欷
蕅
墁
獴
钖
萵
畤
漷
済
槑
荿
偾
缧
笾
堉
謐
鴛
燿
傧
栻
懔
鐺
襻
霊
蚇
凃
淏
浬
髪
萣
塆
蔟
鼗
煖
鲼
嶶
韜
袇
坵
矇
绠
苳
摟
甏
狳
骃
暸
揹
傒
処
摰
嗌
閏
铫
魟
瓞
徴
魷
噠
蕺
棪
荭
捜
玏
幞
滉
笸
濺
觌
沬
窭
袷
莿
卬
缌
荖
菝
鏗
饫
氷
焼
蠃
荬
艟
莸
燠
瀞
伲
崾
霂
炟
偓
嫲
麿
鳚
酾
螁
肁
簫
勅
俬
塭
囷
犰
衤
禤
乇
翾
笂
叴
蒆
牴
梽
衹
芏
罿
溽
礫
埯
祼
轵
螆
龕
玧
敎
锪
嵖
蕿
趼
湴
埌
撘
壊
饩
忓
亝
肜
隞
踔
蹀
蒁
氿
謦
雿
怫
燐
砉
鍖
淯
揸
芅
栄
垧
顔
耂
鲚
唻
喫
橥
亐
斎
芑
効
暘
呯
撄
甓
壆
衪
螇
韏
绱
唿
栳
璣
澔
羀
诖
笉
砑
榇
仂
筿
牁
値
烀
嬪
趌
嚭
儇
滸
莇
芇
磻
亽
誥
犼
鹡
垤
葜
綏
鸞
奐
詼
羥
呙
廑
櫛
鮰
徧
鑣
鉗
綝
柃
掎
妘
閡
懟
緞
蟪
婼
芀
螣
艴
茈
澌
揺
芁
慝
舴
鞮
丷
勬
昳
紺
禟
酎
掤
搧
冨
軾
錚
漶
洑
銖
跩
蠣
钭
泋
狃
雱
澥
尌
凊
聱
湪
舯
蔌
趿
膁
遹
蔹
冖
镆
僥
洫
猡
苢
鋐
仏
羆
甕
鹱
羼
舣
玙
訕
葷
颃
鳓
縯
狨
藹
忚
硗
鹁
娡
蜞
颯
墼
蛘
胂
拃
尒
佸
暋
呪
橦
堎
跂
谇
幗
蕰
掊
麇
劓
銎
詰
徆
蚈
睏
蒇
鎚
嬫
梔
艨
纔
庡
郿
鎔
滠
屜
硃
亹
畬
梼
曱
剀
阌
鼢
鐮
炱
筊
衎
彾
卹
劥
厓
隴
徠
諳
琲
闍
哿
灝
烔
芤
嗗
薬
仳
蚡
绲
菉
仌
薫
唎
羝
眚
湁
鞴
鉞
崟
抺
姤
酡
鞦
枘
锸
苘
刭
窆
疒
瘧
瑱
箋
噉
篥
鸻
汎
氺
抃
阼
訫
躔
曽
夂
殌
軼
蕁
圝
貽
熷
娭
訢
釭
浄
渟
浗
璈
従
蒎
錤
镡
棬
荘
硯
猓
殮
鈐
冂
氇
鹍
圧
鞞
錨
硏
贍
琹
渼
葸
槳
槔
緑
崦
瞼
绨
踰
驩
埏
憚
縠
惣
滝
佴
頜
頼
儁
刡
舨
臁
営
馘
渋
舁
狴
闌
黙
櫆
蚃
頡
鹆
媺
龆
纓
獉
籐
閤
岵
潃
韡
梱
礅
晧
莛
姵
鄴
尙
鹓
雮
纻
瀵
鲕
瘳
蹺
狛
鲹
裰
绁
毑
斉
槙
瞇
葙
慳
茍
鞲
缊
墕
阯
轾
庩
祔
鲌
缷
尪
屼
猃
耩
耱
琎
溦
礪
魘
瘵
轺
騏
裼
蠼
詝
嶇
踬
蒉
寘
玱
蒔
纩
峩
氆
抂
拪
瘛
諡
讞
眀
雑
勍
枹
犳
箦
蹣
罽
涫
鞒
刜
碡
缲
絷
餌
酲
鹾
桖
虮
晳
斝
舎
凵
尜
藠
羑
郐
鐜
昪
玚
譎
吣
酤
堋
溇
迗
歺
殤
缍
煇
驥
顒
蟎
痲
珧
鲃
飖
禔
罱
壸
颟
騁
鎗
毌
皝
炩
鲴
藺
镈
梿
洨
鄚
渫
莂
戜
躞
搠
崚
鯽
俜
撙
鏤
瀘
郕
馇
迆
隣
澉
筅
睒
玗
扆
働
骎
翙
螓
憷
嵝
啱
罌
虓
禇
漭
鲊
戥
薁
劏
戻
榱
丆
鈥
翛
簦
栞
腙
柙
鹨
渉
锾
薀
眬
堛
燼
摅
窬
甌
崢
巛
珵
紂
簃
惻
譙
煺
汧
楗
攞
鐳
鱔
洣
菑
嶅
赙
瑆
纍
燄
汔
忛
楙
殞
莶
樫
躐
倶
閎
縝
觴
沨
亗
倻
朏
燴
珹
鰂
餒
蚆
鐲
埧
廴
袞
锖
憭
卝
鮀
佉
戽
澗
莃
蝤
塅
踣
勲
侘
廹
骕
聴
吿
夛
綉
缋
欅
瘼
銑
髟
璂
繸
宍
戯
孃
廒
権
宬
紜
亀
矻
氍
蒾
瘅
瞀
骟
砹
凖
逭
鲦
锍
菴
鎣
拶
菂
濰
缳
闄
婂
绋
陎
姞
苊
犪
攷
庢
龑
栴
藪
僟
佹
狽
螀
鼷
鷟
癍
枵
盉
牘
紉
悵
蟡
勗
詫
跽
忞
栟
擐
锞
窅
亅
瘜
亾
讱
蒈
虼
薆
昚
綬
樼
姽
袛
駄
瞢
驒
俢
罣
貍
獯
罥
斿
暁
贳
呭
謨
鏀
椠
舭
筦
彂
瓩
鈊
忭
呴
薢
堽
滆
巘
璆
鱸
咾
骉
欟
剷
钶
栒
攴
垲
繖
鉏
鸺
茀
邇
滃
柟
拰
昡
伾
骙
搆
茺
銬
庀
幪
欻
膄
鱈
鳯
嘮
蕓
仈
攮
莢
嗾
甡
鹖
舡
儍
禚
裉
痄
遯
渕
鶘
勭
簏
釦
悃
癝
撾
樻
莀
裎
皒
咴
瑐
藨
礤
镅
譞
肈
酴
孒
圊
旂
摗
顳
囪
魆
乸
訥
閦
彐
辮
鱲
鳑
錮
犢
彟
俆
蝻
疰
嵫
嗶
蔴
齤
韐
玆
摽
赕
薊
茇
窓
氱
櫸
簠
玡
継
鵟
罝
殪
鞥
锽
沇
袓
煕
痩
辬
蟄
髈
瀼
鄘
誗
郪
騒
敫
撌
冮
摛
沕
呺
噍
冧
廾
仼
岺
媧
鄔
奷
犻
鵙
鍝
狺
牤
羂
锫
嘍
螋
扥
兘
闂
俛
鯓
爝
蒄
肸
詡
鄲
搋
簖
珝
逹
叆
仺
労
峠
稂
瘌
慫
瑊
劧
駆
鰕
塝
艚
畯
锎
鐩
鱬
匜
濊
揲
渖
麤
咥
盦
靬
蒀
傺
舘
晢
賨
呑
坫
鑊
繋
錕
鄹
鐾
芼
彫
牉
龁
祏
蛑
羄
埜
涇
歔
陴
蕗
乚
鎰
鮟
皚
闶
藔
瞍
甃
刉
斕
峴
劄
巂
隑
勹
仩
羇
勪
鳀
缐
薂
轆
憙
媄
鯖
餈
跞
眛
靦
埈
蠵
鱇
麹
覇
踺
櫂
萑
鈾
撖
鋤
鋌
檿
慟
庒
贇
镟
冑
嶆
塹
瀅
鲏
蝟
庁
颋
鍥
塄
鞔
夘
绹
芶
鲿
羃
鍑
聡
訚
熶
鄩
狝
縄
礐
廆
迖
佧
鮫
甗
潯
宧
侽
撠
刋
飑
窀
醑
餞
溍
忮
臑
鎺
銋
謔
惝
洢
鮠
蒅
鶩
閟
嚩
戠
兎
佽
銭
蝿
徃
樛
冚
覩
蚄
茳
袀
諄
摀
帀
甈
趱
亖
涴
莄
禘
倞
掲
眵
轹
詨
黐
鱀
皦
狓
唽
蕡
刢
骱
陁
藦
锬
莧
鱉
諗
籥
汚
喦
躄
矞
劂
砘
靄
縢
詆
昤
狅
泶
椂
苧
曺
閹
掟
敉
赸
軽
鲗
弽
耔
擗
牋
硤
庝
奓
踫
鍀
縁
緘
砩
濩
酂
傛
廙
隷
柷
辵
掞
羙
熺
铚
浤
鎢
亼
払
犲
乫
礓
醵
紬
斴
蜆
悳
覬
霙
獍
磉
楢
曄
嫐
袼
瓚
鹢
廍
洿
懽
袮
芻
迮
膅
嫰
榍
銵
楀
搢
媜
哳
甴
摮
夊
謚
彆
恏
鈿
枃
烴
脛
瑨
鄫
螄
嵎
躉
櫄
欒
覦
嵁
脳
仒
籺
諲
蓂
伈
毵
佁
勔
烱
婬
葢
狯
慥
鐙
燏
锼
毪
攙
撱
喎
靽
侁
詧
庳
獷
諍
殻
膆
笅
锓
蟳
輋
軻
敨
吢
毹
禋
颼
椇
冸
礞
鮎
崥
塽
簬
趍
钔
裃
飐
丠
傉
鉚
尥
衊
襜
溁
穏
夋
岃
侓
乁
岞
訁
浡
忋
旛
堶
蹻
朌
鍐
棐
柸
犃
熻
犏
浛
晸
暎
葎
臜
悰
僇
魮
潏
戞
蒝
荄
瘐
叚
楛
巣
氕
騑
肷
敔
廽
昫
嘰
垎
篚
憿
夐
祘
锩
裊
擰
迒
侀
婞
廌
酺
裣
挙
綎
譲
皕
皛
窾
瓌
鲺
囙
蝨
躪
碥
厷
蜾
銨
庅
哖
掋
囲
饞
栿
囩
辿
嶸
鶸
兏
漖
姟
惛
攉
圁
鼱
祹
倣
忢
鵺
鳡
菫
濘
餽
鏋
捃
覲
杮
彨
洈
瞓
吺
燾
菥
脬
嶲
襕
脁
珦
捫
悽
懐
茝
簣
搥
膃
煐
堟
硭
潁
韃
弻
澴
嬋
訏
兂
顥
璪
圀
錞
怱
遅
韆
苼
艶
櫈
悕
楤
涢
賸
铦
禕
渃
閪
脣
蓀
囨
尨
佒
鎘
鋹
敶
榼
鮈
冃
鴕
嵚
諏
丗
鼽
騫
刬
鬏
屛
錬
煬
帱
驀
繙
瑡
蝑
俵
鱻
蝲
蹓
颳
焞
驪
傜
儚
賡
粞
顰
賁
猋
弶
寯
傝
倢
絺
鴞
噾
歛
莰
獺
舲
泇
醭
脞
歘
泩
檵
爫
棫
扺
俤
姩
鉨
荅
挼
肭
皐
惓
诪
輶
蟜
椛
輓
觫
盩
钸
鑌
伷
飴
镋
晙
羋
褆
啝
嗕
羕
斺
紑
巤
馱
狌
呬
祾
頠
犨
镎
聼
夶
奡
鎵
鎹
赪
淂
忈
囬
簰
瑧
寖
敤
僞
祊
鲘
匋
杅
擿
伓
揎
昐
潵
敥
呿
鏁
婃
掍
蝚
閆
嫆
尯
槅
鐫
衒
悎
婲
亇
碏
歀
覅
枓
曚
虒
珴
丵
螗
掱
竝
朶
嚸
櫵
洚
鮡
譌
铓
伒
徍
祲
齉
昜
惔
訖
猄
檤
軛
墬
棆
趯
黹
冁
酈
梣
祫
鸊
槚
刼
搌
銶
谫
潾
粦
蜑
褀
橚
杻
犛
忔
糈
躊
瑒
塲
稙
唼
莣
髃
秲
暦
厔
戩
殽
朿
摨
挻
拝
堨
菻
昞
泂
麐
覈
倧
籮
緈
櫟
鳽
鏇
煄
妏
劁
鳘
鈑
仛
蝘
筻
弐
冭
銲
檴
鷸
擧
矙
翫
韮
焌
鰍
綈
嚆
鬢
阢
泃
曟
恧
鯙
椾
硁
妧
嗐
鍚
寀
赇
汏
揵
楩
恱
驵
锊
鎓
胩
砳
獰
搾
犾
酔
奌
櫌
鱒
渙
淛
骍
雰
姱
蔦
瘚
寃
鄗
燬
絪
岕
瞵
卨
鶉
镤
堥
垞
锳
迍
剉
恠
蟓
簲
愽
檺
愮
钷
鷉
镩
鍜
烎
硿
檨
齲
鋬
痖
粡
襬
縉
湰
栆
癎
鬪
讃
抪
铘
匂
啣
瑑
妬
鲙
鞬
邲
檑
嫽
薺
歿
夨
胠
盬
齢
箠
禸
苺
軔
彴
嵙
襌
灱
頧
笟
犅
峃
倅
鏐
邅
铹
穉
窰
醂
蓆
匄
霅
痃
嶓
姁
怹
珜
櫗
煋
朅
巭
捽
爌
瓑
魋
勼
匸
觖
玭
栫
弨
騖
鯰
夌
噺
撚
砯
斶
澐
儛
奀
絀
仠
刌
餸
筢
摶
牻
亯
蘚
箙
垝
镃
廼
鬐
挿
莙
籹
嬨
茤
暅
鷥
锿
粬
糇
熸
漼
偰
滈
杺
殢
阛
噏
択
乣
攽
飩
啋
僾
鼇
卌
崄
紇
扱
逺
怳
庣
冄
軎
僬
憓
誐
訃
忕
阓
旣
旇
垍
蝵
赱
鄮
籙
濙
裈
霽
頬
嘸
竡
鴂
姌
閭
壱
卙
堔
鬭
杄
悊
宎
訸
彁
轂
媭
椀
鍞
餛
劊
吰
顴
殏
樉
鲒
岍
赆
鰹
唪
諂
焮
侞
鳋
秬
櫘
恓
俇
燋
斳
嬬
暍
蝔
濶
櫒
澇
讎
窋
媖
瘨
煚
鉧
軚
瑥
琀
嵒
桲
挊
唃
趑
諉
菿
瘖
梾
恝
緲
岄
鰓
鱓
鴈
舗
癰
鍟
辀
鄀
憝
鷇
豗
觍
秂
郈
墫
俋
窊
迌
唅
鐡
孿
曘
楁
坣
铏
滍
櫪
佫
犿
灃
齮
宔
玓
冱
勷
炪
冩
爩
嬈
齪
饦
弪
嗈
辪
擡
蹯
虍
鵪
倕
沘
褸
篯
悓
劦
儸
猙
犮
熼
櫓
臓
櫐
脰
忎
廯
鲰
亸
狊
悩
弌
呉
蓢
簍
檼
颺
乭
緌
沴
佀
嶒
紝
溞
墚
阽
夻
飡
鋯
硶
扽
潩
飔
叜
睃
畧
豋
仐
芐
缏
瞾
洊
譫
噵
紥
牮
嗘
湡
鴷
觱
硙
偠
旴
麑
嗛
郚
臞
敂
鳣
挒
廩
筯
瓙
稈
伡
壠
鏅
绖
鉸
逌
溻
鸑
勮
慬
镵
砮
坬
丩
龖
憺
偣
埰
倁
媗
嚄
鏸
巠
脢
浵
晻
厳
熥
堢
沺
噯
灜
淉
堣
綪
摑
銦
逧
欬
猰
唭
顕
詁
皬
疄
鬬
珖
晄
鞳
髕
裛
巇
嵕
羮
緜
藷
姸
橒
曕
爇
讙
靐
葰
枏
掭
藟
笓
輰
苠
牸
陊
閮
罈
鶿
杬
姕
觿
犂
醱
轷
伃
迀
玨
坶
囓
禖
禨
墠
朩
呰
頞
慆
鉬
湑
歯
鶚
慱
嚬
堊
挐
咃
埶
跼
鈤
諠
棓
玁
湋
阨
濆
謳
紶
蘗
爀
滪
瑝
縹
葇
槨
厡
髆
琭
鬄
畨
蓰
嫜
錩
獁
僜
晛
餿
盌
晬
敺
鈫
驤
扡
熇
犠
橿
槺
篃
欏
嚜
朲
麺
杧
暕
駡
礌
鍧
膪
餗
羖
瑸
咑
禥
臶
嚱
紒
觽
奺
儵
囦
涚
厛
鄕
脿
蠋
刓
沲
颥
鍬
諶
梠
驎
牐
鑛
嗙
閾
旓
斁
鋭
皢
睌
甁
磜
媿
鈈
吇
哃
琄
甿
仚
櫅
壻
繄
瓅
櫀
厼
蔀
泤
戙
擼
盝
箢
卋
齄
鴣
匽
觔
狖
埫
皃
刾
笩
撹
涖
貎
掑
澣
栬
潕
婰
彵
坰
咅
髣
颲
躜
藴
狆
綍
騾
嚢
鳆
覀
覑
怊
眜
琁
礑
幇
詪
敻
堜
埄
俍
嶌
傦
圴
杙
喓
垯
笌
瓖
蹐
凢
戤
洐
栧
嚈
砢
椑
媱
獃
敧
壎
緢
祦
酏
筭
睸
嗱
鵠
羱
噚
崒
貐
韁
鍘
櫲
辷
瓈
濇
晅
蜺
耢
辒
駙
愴
僎
攆
齧
鬶
睱
璮
娀
俥
撴
咵
頴
廃
嫺
砕
庪
鲖
禑
婓
耰
旈
敚
跐
裑
釿
骒
嬭
竢
璹
亷
輮
垙
絾
甽
旉
瘝
銻
諴
陧
畾
腽
湇
圐
讖
鹠
涜
椫
旀
笁
炴
榅
遝
搛
齬
蓯
啯
姏
圙
鷄
膣
闅
眊
嵗
萇
婹
濈
奨
鶵
鐐
踦
潶
剅
剰
犱
擻
鋇
蘘
眢
皁
夝
侊
軫
臯
搨
灋
槱
譛
茻
攲
蒍
渶
輱
縊
焠
襙
耖
矰
鸛
裀
枻
鉢
謫
紈
煴
枬
纞
邉
躥
痳
莯
濅
哬
饾
閞
筴
柦
玍
塁
潽
蝀
鈡
呣
卄
鹯
旑
嫋
苪
堬
朎
帨
讒
謸
狘
舠
彅
厐
厎
佖
曁
髴
鏵
楃
琓
眴
犵
嗏
礬
暲
乶
堦
扐
譟
枲
癩
劐
丯
餬
寲
仱
騄
蓪
珎
懃
痾
繎
炲
鍼
詒
厖
鬨
諨
癟
櫴
唴
姈
欋
轘
滳
鍠
朘
覌
櫋
冐
垾
僣
耥
顓
丂
漙
撝
驃
泆
枒
揜
鯡
湠
桯
漤
瑈
愰
竷
捤
孮
嵂
閰
珯
锠
欉
雊
罠
濋
妡
彣
偂
鋕
芔
輲
戣
笢
呫
祤
讐
枴
懆
翿
悗
喥
亴
巵
墿
纁
敩
吙
駰
骹
鈇
螚
繻
汸
侢
鑳
褧
綅
乕
剤
咢
嘦
謌
戇
隩
鑨
稊
玊
栨
唦
飠
騳
钘
楱
棿
炵
嘜
冦
蛍
邘
埖
犺
鈀
櫺
擯
偍
洰
睆
宐
岧
唞
洅
縂
伅
踧
莋
旐
枊
鷃
檞
賛
曡
徾
雝
廞
啗
嚶
虵
婻
勑
冺
垜
賅
嘒
叇
讌
褭
憼
悾
岠
鶒
赿
榃
瘉
氳
櫍
摃
慓
嗩
翯
浹
蓅
骣
鐞
窢
亣
綘
挓
戉
偸
氶
啴
簩
圂
菋
哱
駢
鱵
铞
笶
靰
鎅
睎
拡
哜
鯈
痋
愭
狋
蝂
痬
裪
宨
佲
蟌
澼
亪
釩
蛺
羴
鎭
樶
苖
囮
頷
襠
耑
熛
榦
囼
詟
磘
禙
棤
箌
旡
斠
靨
蝞
叾
鐖
癈
庯
鉦
訐
吚
紞
皵
抦
珌
栦
婅
蜎
枌
箹
氂
隤
瘯
炶
踭
刟
絛
糵
囌
櫶
蕫
厜
珻
渓
阬
焄
嶮
澯
羶
瞐
闐
鈼
鑻
醨
菼
倂
誩
荈
繒
罃
朙
塈
枼
咍
夆
頊
婇
峧
塥
汫
奙
鍔
釒
璲
郳
亱
闬
諤
箄
獢
汖
腍
旊
闞
訌
廄
叿
闉
讟
祃
唣
飮
荮
歓
梘
枡
旟
澛
氬
龗
衖
墈
噀
騨
胲
滎
匇
盻
驁
恴
嘠
苩
斾
僊
遈
圅
畳
柤
蓺
弍
瘔
菢
乆
鶏
抁
儗
澒
巌
簁
笖
劒
秏
稆
皧
忥
偪
錸
浰
壖
鞡
嘡
繘
疢
鑺
畇
蟞
箎
徯
惪
姡
麕
嬮
絔
驫
諛
狉
湦
椼
飭
钃
鍒
灪
灥
湅
媔
仴
鬮
榣
憯
屲
疭
姠
噂
刔
輗
臚
魜
勯
亁
坋
偱
忳
仾
貲
辁
纕
崿
秴
湀
欌
掻
濄
沝
侸
鱘
幰
鸝
牞
霨
萹
眣
眰
牜
洃
榑
忇
諟
鷴
誑
欈
喼
糢
凣
臏
畐
髄
疞
棽
礊
紵
籂
韘
鎷
廕
鍇
楶
昽
赮
襖
犆
嘙
鍓
秄
鍨
鱥
弿
槜
峘
嚧
蝡
瓟
囻
轪
篢
鏻
鏉
襃
痏
垿
愯
刄
咊
鞚
珛
晫
頵
筰
帇
孨
皯
瀇
庤
饤
蓜
颕
魎
鰤
駟
刕
鯮
帞
靣
褕
槇
篋
腂
橈
釈
苝
鸂
虡
娚
糀
煶
焟
慇
弎
慭
鋋
冎
鵖
魠
緵
穣
勶
櫎
镴
倸
踇
苶
噭
褵
箑
貣
倴
粨
璦
罓
昄
叄
琋
懮
悧
迊
靘
躡
撶
陥
櫷
旵
啍
瀁
醁
芧
黡
牿
墣
偭
鄌
盄
娸
寽
塨
啇
呇
僝
漥
龥
霤
愼
肎
鼔
蚖
琫
泘
禰
麯
杋
笒
嶉
赼
棁
錵
坃
犋
娒
螻
杕
悁
僂
徦
鐣
銙
敹
闈
儴
禌
惲
钀
迠
潈
鍱
醿
繍
迻
鹥
垨
蠎
垇
苆
嗢
叓
葽
巎
嘫
坒
鮋
赒
贗
譕
鎻
欎
犜
炰
墦
牣
檇
拠
铴
篳
詴
滀
儻
僽
迉
箖
憳
跘
侴
齎
熲
箞
殎
閬
踆
哫
婥
妸
筳
毦
飈
舦
癆
牥
漃
隃
浿
駉
蔊
刲
櫜
囥
鐨
垻
傞
脎
梛
莔
鞶
诐
袗
櫊
嚙
鶲
躰
踿
櫹
灕
闀
紱
媯
嗻
璄
琱
澨
祌
捄
厾
螛
臫
癵
嬾
漻
棈
旚
憇
耇
柈
晈
墖
蝜
鈸
嬄
咺
橞
笭
憪
惙
麀
甇
鼒
鍢
皨
巃
矅
瑺
鎼
揼
峮
俫
岋
翬
椏
朥
鯧
敮
哊
眳
鵩
鳮
鬰
岦
婄
妠
獏
櫫
飂
牗
屻
鱚
惀
鴒
晥
嚚
丱
璥
薵
隄
灉
萚
铻
壼
缞
荌
壝
菍
瘻
麣
蕥
鉮
窞
狔
觧
銫
摱
媟
娤
矼
宂
籣
秝
沋
柺
庼
冞
萢
祅
埡
馿
鉯
爚
埆
篿
晊
鈜
猟
鎩
塙
挷
嬩
媣
虖
鶇
閙
澭
僉
鐑
粖
泬
軏
暟
釹
寜
乤
鸜
訄
弖
囸
厰
醡
嶠
翣
纈
歨
蒓
蒱
淓
匘
柲
遆
潗
掄
尃
鲬
苐
裯
喨
冿
駹
刅
眘
呡
贄
彔
虀
霺
鈅
垬
淲
墺
灊
楳
猨
綄
悇
皜
瓛
燝
挴
愨
啈
蕚
跱
緾
壒
蹌
獈
驄
耎
呅
紸
箣
衕
敱
怺
匼
蠙
蝐
琣
酦
舙
鶻
挍
崠
唶
輦
緱
歠
喯
熴
朢
嚞
誒
倝
貭
纚
糹
欗
麷
躂
槗
巬
闓
廰
箒
瞹
珋
穠
芠
笀
鸕
栘
廔
醲
筥
柅
伀
駮
汈
膴
矖
誮
罙
迋
輧
萠
悢
喛
繝
苅
睭
皊
潄
浭
徔
嫏
蓨
慍
踖
瑳
忟
嶃
醾
鴴
騋
雚
乷
鞕
砫
躭
睩
顠
閂
咉
媁
祙
渧
泜
愪
娖
錱
瘭
慙
媮
圗
鯷
飝
犕
焢
懓
尞
躹
曀
耠
桊
倗
頎
銼
艎
粋
矱
曞
攺
縵
灩
豿
豭
洏
薳
粃
朂
瀲
檰
夈
饢
渮
瑮
驲
鐭
貙
忬
茘
綯
泝
剸
鯱
韞
鑠
橪
椓
鞌
爣
洴
裇
噐
鱤
鐗
槪
遡
缼
磦
牭
銔
碕
屇
袿
吀
佂
澁
橑
齷
鮍
誋
琸
颩
睍
騮
茷
鉲
鏃
圕
龂
筩
洓
巶
埛
荙
溿
敭
齌
銚
抅
惗
熯
檷
愒
簨
偅
躱
啌
茪
綔
鍺
褱
萿
寗
傗
鮸
韺
覗
綷
雘
鐻
旿
棡
诇
盙
熀
猸
叺
脤
牓
伖
譐
椮
栤
娿
胔
欵
蔄
紭
瀌
鳾
眥
姳
疁
粙
惤
謢
檕
昍
婍
娯
奼
酫
镹
珆
烋
孞
犚
粰
矴
嫈
勦
餹
鋡
沷
攰
奝
觭
鰈
猺
歟
栯
甹
燀
囈
唲
萓
茿
禝
疐
馫
飃
譹
澙
樰
蕯
螠
纼
纆
溙
誾
詀
蓶
竻
淰
趫
扏
奤
賔
嚰
薾
瑅
汢
淜
咹
朒
朤
脕
襤
崱
咈
貒
斸
凎
珤
咜
乑
镮
枙
筈
卂
蓧
瑔
媃
銥
瑽
彞
癋
枅
犘
槩
揞
僩
譭
帴
硂
炣
栵
牳
溎
涳
婑
佡
脶
夀
瘃
鸧
騃
腃
銣
悮
饈
糥
灈
磵
寁
盨
紦
犫
醽
逬
椝
愙
馌
藋
輴
苽
晼
酖
挶
鉾
櫉
礮
幙
莮
旘
彜
蓏
魕
甤
泦
琿
廡
屧
铇
曵
塰
畱
逨
歊
蝳
粛
糎
硨
盺
纘
緔
邧
麪
篛
瘈
牪
彑
逇
篽
嵲
岨
芉
楬
瘣
畷
幚
灴
椆
墡
俓
犈
啨
檚
庛
夎
刧
餑
虰
揃
矦
吂
鐤
鍫
溵
醤
矟
呟
飍
啩
悆
尟
睟
洟
擕
僔
簵
隒
秷
櫔
颣
剟
罇
掓
莕
恘
鶺
蹍
赗
洯
棯
圡
茞
穽
湼
掕
煃
刞
苙
扄
玼
赩
罳
簮
琠
炏
鐹
迵
伩
諎
憡
绤
皪
喤
斵
欙
枿
鎯
釪
錙
賒
鵷
鞿
褦
狶
敊
縐
穡
浧
剬
麃
貤
簑
洭
彸
寎
堳
彉
劋
槀
鳠
茖
臝
諪
縦
厸
剱
袏
澫
檝
拫
帢
堮
膕
佮
鼴
斻
綣
齾
鈹
苿
曫
騧
漴
抯
嬑
蛯
綖
瀷
棌
憟
鰥
粻
泧
撣
鑷
鉥
誃
灺
嬶
儞
溡
眍
椥
攟
鹐
瓬
凨
琒
橀
筧
灤
繀
硔
哢
乮
褉
袐
綰
怈
嫢
鹙
窎
娫
麚
牰
籰
泭
牶
宆
鏍
衯
牱
棶
撗
噃
縴
扙
乪
饃
魨
嶗
凩
寑
嫃
圞
鷓
蠺
秈
鷂
漌
湶
棑
墍
坧
靸
瑓
橾
杒
輥
絫
歜
拑
魣
檽
汯
汣
竈
仯
饉
銤
絯
衚
蓸
眏
揕
垰
髢
帡
剨
腯
縟
斄
扂
艅
琩
玔
墎
朸
憕
鰟
虪
烚
涬
旲
閧
柎
憀
塡
侫
丮
秔
槦
楄
茠
舓
誔
蓹
竾
瘽
烆
歈
阸
禆
癤
玶
惸
奜
嘥
椄
桮
闋
籱
崕
殫
嫕
閠
襾
稾
灢
哾
籒
砠
鄡
桟
璝
垏
痵
抶
渽
忼
蘂
卾
黮
鏑
芵
娵
鹔
淶
孅
鬷
輌
蘄
兪
魌
馎
簻
踘
譺
泙
錏
苃
瀦
牨
愾
墐
剺
貮
昬
塀
垐
芛
棊
惂
婗
麞
庲
籘
喩
鬩
媕
璱
庘
吷
僴
陏
筎
辧
蠧
繾
絅
箘
兙
鼈
舥
箛
鑵
滒
韂
穈
烒
挅
囏
劘
阰
閫
搯
抰
聵
猯
崳
靉
躕
坲
眤
泑
晹
稉
殣
劀
镸
稌
欃
婏
荵
噥
碃
喴
暪
騞
鋳
杍
恊
喠
踡
踈
訡
粠
泒
兦
蹧
掵
黇
譓
褟
菶
嵆
嫗
鱂
迏
裋
荗
臛
俙
蝖
虩
湝
悋
棅
鉱
蔕
瓥
楅
瀡
魸
覊
洖
偑
渻
殸
鶱
耤
鰾
靭
繲
瑦
焝
伬
鶼
逈
褎
薗
癦
旍
搒
痟
噛
蒶
窫
噷
蹞
蘢
薠
竤
醸
蛅
蕶
姎
鲯
腄
緥
琈
冓
侎
瑫
墷
齟
潖
漐
穜
枖
垪
賍
瑂
秞
夑
吜
瀺
媢
噰
韾
苨
灠
滐
曶
髽
硠
弡
冣
鱝
鉷
檹
樒
埳
竫
瑉
寚
嵿
鼡
顚
脃
熤
輊
臿
犖
乲
豖
蕣
鐏
鍶
冝
鵼
粍
鹴
鈽
謧
艼
睠
瓨
熿
鬒
鋻
銧
緡
穟
犐
灆
愶
咡
敓
彶
騭
韽
薝
渇
趐
珓
毚
笵
眿
涷
圇
煭
懣
琻
煡
搣
弸
刏
禼
痎
靁
輵
跕
狟
澋
巺
堭
鄤
翂
慤
伹
逴
囋
彺
鎛
殀
焔
傫
骦
篲
玃
哷
伣
抆
嶦
壵
哘
頋
蓴
嚿
闥
祡
芓
牎
櫞
匴
轈
茓
唥
籯
煿
謅
竒
榶
嫤
銛
鄅
羗
稥
濓
梫
暀
虈
痡
牷
枆
摐
奅
鑱
葅
璫
滧
蕸
篸
穄
徎
嚛
芢
敳
揦
娮
嫙
姙
譔
芲
狥
渰
樅
峟
堸
糴
瞜
汋
嬡
郙
瑃
槖
旙
湵
茋
幏
萐
疪
烸
柉
妟
颿
袨
蒛
扜
帟
鶗
餔
鄆
菛
緖
淈
榝
挌
鮗
魭
鄃
軆
捥
扵
唫
轓
蟕
敋
尰
鴳
贔
緟
穨
侒
赺
苭
岒
偺
鉁
郉
袝
膶
罬
晱
抷
嬜
糺
飗
阘
蚿
鎶
貹
蠑
癶
褃
薿
牏
崝
霡
篈
籾
摵
吪
鑪
甶
軿
粺
巼
凔
荍
涒
簒
尫
踼
砡
杣
頇
铔
荺
愐
妭
吤
虋
蕜
彛
娍
鞆
縌
氼
桝
喣
輜
崌
鏠
謩
蟫
潓
狕
嗭
闗
鉓
踄
晣
璚
涭
墽
儹
鐪
稒
擃
崡
崍
壴
鋃
鱟
臹
嶰
嫮
脗
湩
剢
兺
闚
锧
歮
昮
姇
鼫
曪
昑
藭
竸
麁
躌
缻
汘
殐
攧
姷
觙
涊
恇
剳
鉍
狪
蝛
耈
燂
埥
噈
脧
朞
暤
埢
儺
鍌
礧
犌
鰆
怑
詎
絠
啛
冡
譶
糭
囄
浟
迣
秶
棩
柕
黷
鯻
陃
撧
噽
踠
渷
崈
奣
嶔
鳁
祩
湸
嬝
襍
眻
漄
恲
睙
疕
鮁
眎
爼
栁
胕
渀
躶
渁
畺
幑
粅
搷
輈
畄
媤
偟
偊
漮
侻
佪
鐿
蓙
絓
糼
煆
杇
蟷
禴
渢
浀
鐽
窂
椗
攖
秺
痌
椙
屭
裲
蠄
眹
珷
鉼
逰
浕
幆
唍
鑀
觝
翏
嗼
鉎
輙
獦
挦
拤
峸
馼
緁
鴆
愺
泲
駸
緍
瘂
烣
樷
倷
蔲
脽
軨
捴
嘐
誜
檲
椚
彯
饙
竂
俰
黁
鷨
鶡
畉
摂
塟
鞓
轕
欐
昖
嫼
笣
穻
痗
琡
輞
藂
癓
漚
崯
蔾
膵
梩
坿
鑢
錧
棏
掽
鑸
翺
捰
霫
榯
挵
嚳
茩
聻
獙
旽
嵜
埅
剕
靿
岊
鮜
縞
珶
慼
鷳
鰶
玅
湢
萫
縡
紕
籖
暼
幃
鼟
駃
隓
簳
衘
孌
鰨
豷
虌
柖
斢
惄
帩
屘
鷙
棃
晜
饀
艵
玬
塂
嶪
婐
詵
昩
廵
娢
嘓
筸
礳
瘺
頄
蓳
荱
崬
劆
饘
斈
咮
剶
鞄
厠
鯵
琂
堐
坮
噑
厵
髠
誆
瞆
讉
斨
偙
鳂
譻
虅
甛
毨
檾
幤
嶏
鬽
鋽
蓷
菒
狏
窴
敇
嶢
鼌
鯝
鄖
謜
漰
揳
屩
蹽
蝪
焿
滮
捒
秖
厽
戁
豀
爮
扗
峱
垈
圵
穋
慯
侭
飬
釺
莬
橆
喅
莝
昻
嵓
逎
訑
湚
梈
薸
茽
犗
灲
滫
惎
勧
鶫
朹
傃
臠
睋
懨
剮
鎽
紾
簱
癭
瀯
屴
娪
奍
乧
鷁
逓
衸
牕
煠
漦
汌
檱
戨
弆
呝
侹
伮
頨
蕌
荂
眧
焺
禫
濼
姀
勚
鬑
蘡
摡
鬅
韨
鍩
袺
玒
獀
揷
儃
胾
巑
齺
馠
茣
拕
嫳
蜼
笘
顟
滛
楒
囃
劚
袙
緼
糒
滽
扢
冘
靱
襐
蝢
嘪
鄨
袾
礉
爔
栭
擭
揔
妑
甋
瓵
偀
鵄
犎
爢
尗
孭
夿
厏
瑇
墝
倀
鳛
矤
圤
嘂
漹
姃
鼃
釂
濹
淍
忺
儈
迯
辠
豰
卆
盫
潻
浱
掔
廱
啹
鋗
碻
捿
宻
鰱
筽
洤
晀
摴
堓
儭
僪
誚
箥
峕
鈪
磏
猘
沍
椌
侕
俁
飱
磪
鶄
跢
褋
蚷
惈
妚
剘
瑴
晲
惿
唝
倳
殹
夅
頣
腨
粯
璗
琕
瀓
栥
鶤
絖
皭
圫
勥
蔆
舋
碭
抧
悙
尠
佊
岥
厈
靝
眡
楋
愓
嬞
尭
魖
臖
兟
虙
繰
衂
虷
苸
嫇
囒
魡
榳
梒
鴝
睄
犓
攃
搊
饐
钑
罫
絝
嵵
坉
咶
傌
鉈
芞
磝
漘
昋
擫
尣
坱
倛
鴇
濳
斅
辌
謷
箉
禠
燶
溈
孶
俌
荋
繣
洜
忴
嶍
儏
諢
栐
曐
恉
堧
煣
掯
坔
偛
螾
繊
緫
煵
槴
杦
姶
頖
賚
簙
璕
壌
雥
輖
窻
煓
袌
葹
樆
綊
朜
凴
袠
爧
媬
耏
掦
怞
鸤
紷
甀
汼
夽
鉭
竼
獳
徻
臈
擣
圼
圑
痁
淽
汃
蓚
箂
愊
莤
搰
搘
躧
雸
贁
裵
熈
崋
癘
摠
夣
鱾
鏦
煑
氭
杶
暏
徛
儬
傆
迡
藳
禶
殗
楧
埞
鋉
蟇
栔
撳
嚦
呩
瞤
皷
獞
牚
爊
籧
栜
渱
歁
鵾
鮓
阾
蔠
簞
咇
倐
俉
醩
趖
釴
辡
宑
鬾
蓱
璏
栛
伜
齶
鲾
苮
狢
焴
鷦
郟
艭
潒
伿
鐚
婸
蛧
莾
茡
搫
鯀
騕
漟
盁
櫁
椈
搉
筺
畽
煷
櫏
椬
弚
鱧
魳
緳
厯
鶓
鱖
狑
匭
匊
跀
櫕
悺
埊
凷
飜
雔
辴
偖
魀
陘
磧
黚
韙
譼
篴
檛
卛
陖
鑅
遖
盵
琌
徝
喿
秊
矝
枍
禃
湭
夰
蠥
蕑
跧
薍
蓽
腷
粆
磞
楜
宼
虯
潿
橕
魢
鬦
騱
鍎
蕀
琑
鼑
蠭
湷
扠
戹
鴗
肙
磈
疧
楡
帓
姅
汒
欱
彍
鐟
舿
胷
撽
兛
齍
坖
魩
酓
鄏
衜
秼
燑
崵
囶
噝
釬
緗
獚
犉
襛
畞
璅
柍
晿
稇
疌
涆
贋
詅
袊
虂
肕
榟
慴
奆
啀
卪
觩
臽
橓
岏
妱
黈
馂
薡
硓
朣
寕
稡
潥
鱫
硧
戱
坓
隬
鈮
勀
騩
鋮
蹏
誴
樴
嗧
呁
兠
饍
睘
坢
朖
帺
嘇
倠
迶
轝
絣
猼
滺
摖
帋
妛
骫
醰
柂
彄
鴫
薌
胈
檃
鱽
楉
棳
桭
坺
鱙
舝
秪
愃
鯁
邐
跇
縭
緃
粁
鐍
輅
詺
虉
籝
犝
駼
踎
訷
葴
汍
氻
杸
嵅
髥
潎
嶧
墹
唌
鞻
璊
榙
嘨
冟
偹
飇
誏
磥
瞷
瀽
堝
堈
喐
麄
駑
睖
盷
猒
榚
忂
謖
磑
晍
攅
魽
舃
穧
祄
琖
玞
焫
澮
溓
愖
墭
嗃
箟
狾
囜
凘
僡
鴟
顢
躦
緪
畮
搤
壷
蹹
滱
槾
埍
蚘
藯
潡
槵
愢
眽
抲
嚃
僄
麰
觗
珫
灀
檮
棸
姯
蹡
褾
疂
鱅
覔
褘
緇
簊
撢
抝
勊
偐
禢
咷
謿
肧
扖
嘼
唹
鯭
鯪
缾
礋
瘒
梹
寍
珨
錂
袵
腜
罛
彠
鷚
蘤
荢
繦
魙
阤
螘
舩
奻
卭
鼉
霦
譩
衭
篨
禐
柌
乥
鱺
礿
皠
懍
孋
僶
傔
黓
饎
錋
聤
繌
晠
捈
訉
秅
眆
巸
圢
嚁
刣
鯿
罏
礱
潧
湥
捊
鑚
蔏
絽
竪
槕
鮄
萮
燫
杴
曣
暒
恛
豏
脦
煻
炡
泀
榾
鑁
銍
硾
砆
渏
薖
簺
璙
悈
峚
鍴
菳
穅
稺
砅
畂
峎
塋
堼
糉
硊
揓
嵺
兝
蹾
詓
磿
曋
懜
妼
鳒
祣
昷
掹
姖
鰡
羏
漧
惥
鬛
踶
譪
蟅
婌
薱
葔
翆
厇
麌
馺
轒
跔
詇
萯
珘
嚤
鑞
蹆
璵
鳈
釔
鄷
譠
垳
袘
皅
爟
桾
枎
墰
踨
磳
掁
鵯
箻
夃
鴜
鞺
蝱
眮
朾
媌
傱
觘
蔎
笎
碔
澽
潪
彚
哯
冾
骭
赽
疉
炑
啅
卥
麛
輳
荁
磛
爁
剗
蔢
肶
煈
歭
娷
蚑
茙
茐
聨
粩
祴
澕
柇
鹲
蹱
蝷
纒
矓
瑬
枛
捝
徏
乵
銗
觕
窌
甠
璡
汮
髳
貆
蝃
膤
梂
暵
忊
壄
叅
摷
恄
峢
訔
粎
珒
纇
眕
湏
宭
鉐
蝝
欝
樕
拀
鈶
妜
囁
刦
鱣
酇
蔂
莵
舑
琜
曒
捀
悹
俽
硑
狿
灂
涗
汄
斖
挰
幈
褅
睗
璬
玾
熝
檣
慖
袔
胐
簴
硍
燡
泍
椉
噲
鴃
瀜
斦
钁
徥
榞
崘
嫭
埲
餲
臷
甞
瑖
抣
媠
蜨
籫
籛
睻
澘
摎
凓
鸼
迼
誧
蟟
紟
爕
楿
懳
埿
兿
僤
龎
儤
丳
鶥
跅
襭
衏
蘓
珃
浲
檏
咓
轤
莐
琗
挮
屝
縼
磄
畗
猻
嫥
塮
眲
畻
栂
貑
觶
澊
妉
哴
頝
谼
牼
柶
抮
鎕
蜋
箷
摜
悥
廐
骴
鐀
紃
盇
俻
袡
蝯
櫽
挭
姛
嚡
喌
鵻
辥
虗
瞙
狇
湨
榥
朑
鎡
狤
梴
枔
塼
凅
佋
菙
枺
杫
妢
墴
坆
酙
逷
讻
觟
畵
朻
撋
帪
圠
鮊
膰
璸
櫑
榲
釷
輭
桼
懞
忣
岼
匤
龏
霝
諵
蠿
峫
堒
蒩
硋
鮻
鎝
趮
礠
嶕
奃
凥
阹
蕐
琘
猧
氊
憣
裷
蚳
肰
痀
璑
抙
懥
堾
镼
趆
藾
稭
灮
欞
梄
峼
堘
騵
饜
舚
箆
皥
懡
唡
荝
欂
怗
傎
鱊
豓
焅
崲
嘑
俷
躣
觓
萂
繐
濔
樔
悤
徤
庴
蟢
耊
糶
炓
涥
欓
栚
怭
驌
簭
榢
鷽
髾
鏮
輑
蕝
棷
曻
鰺
鄋
踃
袽
穚
稓
硲
潬
慠
嫍
儜
襚
碪
琞
垔
霳
趉
譃
蕷
臮
兣
侐
箤
秵
琷
潫
氎
菐
缹
鸅
靧
雟
阣
碽
檊
槫
摝
揈
哠
菾
窹
媓
儰
闁
穼
睲
沯
艌
磹
瓻
玿
寉
啙
駪
馉
羉
簉
礨
杁
撉
喒
佌
鮹
馹
錀
醊
苰
壃
轀
艻
矉
沜
挀
怐
奱
鎞
鋏
肬
禒
嚾
鉌
豍
烰
憱
鷩
驣
胘
猵
棭
戫
慽
媂
娗
嗁
唩
靫
莦
煱
渘
殠
銪
賙
衺
屸
墌
隺
蹅
礵
痝
檦
巓
埮
唖
倲
阩
溠
欁
庻
幨
塿
顑
艛
炛
濨
暺
娙
礚
癕
庰
嫀
妌
鳰
隮
轡
襂
脟
纐
繶
笴
牬
栙
峑
僙
侾
齵
珿
澚
潳
抳
奲
鷯
縗
緛
籇
笯
玴
塜
圛
嗿
儨
鬋
蛣
崶
媥
儱
頽
玐
圷
嚂
鏜
鈚
蹢
豜
謡
葠
籈
梉
坅
噣
儫
罸
櫢
捔
厹
剚
鈩
裬
蛈
絙
盭
畍
熋
呍
蠷
珼
爯
澞
榬
枮
弜
龞
鳷
頳
釨
觺
蓤
禡
嵸
鼕
騐
躠
腁
牫
鷘
鯥
荹
羓
漨
溕
搳
悷
嵏
夒
跓
貟
羍
盠
瘎
沰
汳
嫛
餠
靊
絇
笇
竃
畆
溋
凂
縳
篐
敾
帹
妀
蔿
芺
犡
昢
僿
躝
罯
紩
皉
洉
恮
屵
媷
奊
澠
憌
屟
賎
譆
逥
藸
暜
儽
騂
跁
螉
蘫
葮
紆
竉
瞫
棜
憽
嵨
鑓
袚
蘪
絰
恔
怣
墪
醄
籸
梪
暔
摼
圥
飊
牅
寙
呌
髗
釡
胻
篊
獂
溒
喞
儊
侳
裓
緤
盢
朳
撁
葓
汥
宷
肦
羾
甎
焬
槏
婯
兾
兓
軱
躾
谺
葟
癧
屰
酅
蛬
罉
枩
垽
馡
陚
觷
箾
眒
毾
檉
惽
巄
娋
裞
焑
骻
辤
蘴
煟
欑
忲
奫
刵
傪
仜
鷧
鴠
偄
礜
琝
欥
慞
巆
塇
酕
赯
燨
淴
抇
峿
兞
鰅
魒
鐦
膫
痷
椘
桹
慒
恡
帊
叀
轇
艐
聛
痓
焾
崪
瑵
洆
揰
懌
惵
鍂
鋩
袑
癊
瓃
烮
毉
暣
埑
聝
橝
挸
憸
庎
嵉
娕
魼
鋶
矨
癗
珇
瀀
踳
萳
硵
淐
拞
惒
奛
餧
諌
褞
菭
簔
窡
窛
碸
攋
弉
堷
颻
陼
鎱
銾
諕
氥
帉
髵
騶
靷
蹷
篏
倰
脪
惌
陹
邚
螎
緭
粂
簥
竵
斮
廇
篜
篘
篔
槄
捘
垊
鈢
羭
籞
籆
猭
烇
屔
嬁
霩
謓
謋
樃
慅
峏
鳧
鱆
鑶
籵
籩
昣
媆
諼
菗
莭
穾
瑿
鷀
踕
蘽
艧
笍
盳
媊
聮
毱
楖
吘
侲
伭
鱎
頟
酼
讕
菕
畼
琾
焃
攼
捼
嗺
厑
厀
鼪
靯
褝
衵
蟯
蟃
胅
礶
痑
爓
漑
鵌
鳪
餂
酳
訆
燳
煾
歫
楟
椶
揅
孆
哶
騊
鞢
賾
葒
纀
穊
禗
泎
搟
壂
埓
伔
臙
簘
疘
桱
杽
昦
峈
嚻
匁
凕
儔
鼂
隲
豯
篍
筶
珄
玪
狧
漍
楻
堹
啚
凐
釕
趠
蠪
蚮
艒
皸
泹
愗
怓
僈
駈
鞗
蠏
蕟
荾
舏
絻
琟
歂
弰
閖
燓
櫙
擓
偢
鴯
蓃
秠
椡
敠
抋
嵽
凮
鵕
鞙
邟
繈
窼
磎
楆
惉
囇
鸒
顁
謃
褯
罶
緺
筗
潚
梜
媴
婘
鍉
蒧
祋
瘮
搕
岆
嬒
娰
坽
坁
嚵
劰
兡
鍮
赨
滊
欿
亃
鲪
韈
薲
葁
艑
胹
綕
粐
籨
窔
穭
溂
桺
悜
瞚
汻
樲
戭
廥
鯢
鈗
赻
虃
篣
硦
霣
軃
躑
蔧
菎
硩
燵
嗹
鮣
閼
鐕
訿
莗
荓
膋
眗
猲
櫡
搩
鴹
詶
綋
烕
溚
擏
廲
娳
堻
坙
乿
麳
蹕
葍
洬
欶
橧
岇
孻
軓
浌
棝
徫
帵
啘
綀
箶
禜
汅
歰
抭
峂
嚫
鵞
馞
醝
蓒
粔
漎
湌
魴
頩
讋
蠰
繟
簶
碦
珸
烅
曧
攠
倵
伆
鴏
趎
褌
虨
薧
穇
淔
朆
圚
阺
菵
綼
礄
矒
獓
滭
棴
崼
鉰
覸
襆
祳
玵
漋
氜
梮
媉
翜
粫
秥
珔
塴
髐
邿
趜
藎
磗
碨
曯
庉
唂
呚
厗
儅
鼊
颭
韎
霬
諝
葘
碯
殟
檥
檓
柆
昸
拹
刱
鸓
鯯
鬴
萲
籑
犦
楲
梚
柮
朼
拵
餻
蹔
篅
瘹
燖
栰
嶈
偆
鸀
遰
薶
瘑
潠
柣
巏
姺
邆
茢
瞯
洂
剼
鱏
褷
蚞
蚔
絸
笽
怚
夵
仭
鵮
霠
薐
憞
慉
廮
崊
嘵
剏
萛
繧
渹
槥
廘
帍
嫊
唓
劔
鎨
跲
賥
豲
穐
疺
渂
桙
妽
骔
颪
鉽
藌
琙
洘
嫨
壈
鬖
銉
蟏
莟
艓
繤
楰
揢
憹
恑
嘽
騤
觼
糳
瓎
擥
姄
嘄
鹒
鰩
飥
葻
纙
纑
獕
槼
敄
墯
鱃
袕
莚
篶
稑
埀
鵎
鳱
魊
雃
隖
陭
銱
豮
薋
脡
礟
倯
佦
瓾
渜
樀
臡
秇
礕
滶
歬
梬
屚
婤
儓
偡
伻
鼜
鯇
雴
碢
戵
寈
靔
甊
汵
椊
攩
惏
妎
颷
詻
蝺
砱
畩
歾
檟
槢
抌
扴
惞
唈
劖
鄾
蕠
蒭
舤
籭
籄
穞
秓
柧
冹
僢
頍
獝
栮
敼
嶫
啑
黿
闃
涶
扲
宖
塃
垺
譀
泟
榤
桒
嬃
饡
饆
顇
鄍
踥
盰
皡
巀
匰
髲
驘
逿
莑
皌
爤
熢
櫳
梀
屳
鐇
鈵
膸
耹
縀
綹
笰
瘏
檧
攡
戅
徣
庈
嬣
儳
乨
鱠
陫
蘶
戼
壔
伄
詑
訧
蟺
萭
稯
猚
杘
朠
慲
儦
蹜
谹
罼
紽
磩
楺
婙
呥
剦
侟
餺
藘
羬
氃
徲
偝
鸁
霿
陿
訽
蘐
翄
粈
瘞
璍
朁
掿
垶
郱
詤
窷
櫰
棎
昹
屓
呠
謏
詥
翐
癹
狣
熖
恾
鬂
鈰
遬
躈
絁
硺
眫
檌
憛
幓
嵣
嵃
峳
埣
伇
乽
駴
鎾
詷
蜲
窐
稸
牊
惁
弮
啂
卶
儐
跰
洝
橤
彇
庽
岉
孠
媙
啺
鬿
韱
韝
鉂
輹
躚
譿
葥
籊
獘
櫯
搲
鰰
髧
鍭
鍅
葲
肨
縆
偘
踤
豑
詯
覙
蚗
臢
胣
糦
漅
撀
孊
偞
麢
蔍
瑘
煀
麖
鞊
郰
蜽
菆
紪
粊
籿
炗
殕
槷
抐
峉
嫿
哰
鮕
饟
芚
膧
膥
腗
窵
禂
湹
峆
垗
喍
虘
摙
鸈
郘
葼
禈
矂
洷
懠
墲
跍
諔
襥
臲
秌
砽
濎
捗
慹
勱
凧
鬙
骳
逜
跈
譖
菬
絟
紨
睊
熰
熕
渿
毜
棢
恅
庱
幁
囀
衟
苚
戔
卼
錑
跴
趒
謻
艀
瑹
珡
炚
桸
挆
萪
睂
浢
晪
擩
帒
巙
塕
咟
齜
駬
譮
蔞
暚
幎
崏
鮒
鬡
鋀
讁
襴
藞
萉
磱
熣
搃
捦
鞁
閈
賫
膓
脭
紏
竔
稘
獮
湙
晵
摢
扊
婔
俔
乺
驉
迬
藚
篰
禬
癙
鴎
鳦
銕
裖
衃
蓭
繴
獜
宒
乹
韑
酧
苲
艞
繜
緂
綶
鮥
鞵
蔙
羛
竚
瑍
煼
楍
摋
慿
唗
齏
霛
軑
讜
褍
癑
淢
洦
壐
蕼
葄
胊
笡
竲
疷
洀
朰
幍
墄
劌
剻
僛
齕
黦
鍕
蘦
纋
籏
灡
惷
妦
堩
啎
叝
齯
鶹
靃
鉫
贌
氠
榠
嵱
麏
騣
谽
蠁
簝
穖
禓
湐
渄
橅
楴
媼
埦
襮
臇
繑
潨
懰
宯
鈱
誎
簹
巚
孏
婾
婣
奾
僯
顣
閺
辳
趷
襼
蔱
縕
珢
玈
瀮
槬
扅
怌
叞
偔
魾
骲
餙
闟
鉒
輂
萡
瞏
猍
濦
湬
檁
柀
掫
匉
飌
閗
綃
畕
溾
仢
醹
譡
灅
溤
庂
剠
頦
蛃
薎
蓈
臩
稕
玤
灟
淊
婡
厞
匛
髤
芿
祍
瞶
眅
烑
媦
啒
唒
剹
鐶
辢
蹛
赬
篂
彮
崰
嗀
啿
鼏
醧
豙
讝
蓫
聟
狚
滵
淟
涺
墱
侅
麫
阭
訹
蘠
篗
碈
砃
瑎
獌
猀
氒
棥
愄
帾
轥
螮
珚
煁
楕
桚
晐
饳
賖
衁
浽
挱
悞
怮
諐
蠘
脝
羺
粣
祵
眐
猔
檍
戺
圔
駜
釱
襈
蟉
臒
砄
椧
夳
夡
鶂
鋂
遫
迲
衠
礒
瞡
甆
烄
槝
朚
昛
嚖
偳
鏓
褢
褈
蘰
蒢
臤
灷
汓
捸
奰
偦
鏴
豝
衧
膟
狦
瀙
淥
涍
挜
彲
孼
垹
囕
啽
鸏
鰽
餜
鍹
蝹
蜧
矆
甮
瓓
旾
齰
鸐
鵁
鯹
髺
騠
衱
粓
凞
齱
飫
鄐
蟧
蜪
舕
脥
緅
筞
硞
眔
潣
擪
廧
峞
塉
僸
鑃
螖
蛫
絬
篬
犤
牑
潀
氋
毧
傿
鯠
鮯
贒
誸
裿
衋
藇
薕
薉
綂
絭
瓂
樿
杝
彋
婋
妴
呞
趚
礩
暰
挧
塤
嚘
嚊
郋
跿
蟖
萅
敐
墋
埨
喭
鏕
酘
襶
絿
熞
滻
椸
朷
揙
娞
騜
鞟
雺
陦
輘
覤
艗
肻
罧
燅
橴
梲
弝
尡
圱
髩
鞧
醘
襡
襀
縿
毴
橔
旝
愡
鵸
鬵
靌
虁
藑
膹
梡
斆
堁
刐
儎
釤
譊
蛢
猳
桵
揝
愅
嫝
黽
鋘
逽
蝋
硉
畟
枑
曔
撆
恌
嵑
峖
寊
嚔
鷖
輠
蚉
蔯
箚
溰
攓
姼
鷰
鱯
駦
蔇
祬
烓
擉
憰
忩
厒
顡
袯
葨
硜
柛
懭
孧
媻
哅
鳸
鍳
絏
籚
砎
瑲
殅
檒
槈
楌
斀
撡
拻
壿
鸴
鸇
鶖
鵐
鬤
雽
虤
蔳
萷
聙
筀
爞
桪
曢
劜
倈
鸎
韠
錝
銡
肣
硰
皶
琽
猠
灒
汱
樠
崅
噇
剫
凗
偼
俴
鮇
觹
紤
籉
箮
暳
宱
妕
坈
跦
貛
竘
磂
矌
浂
歍
椲
曮
扤
峗
黣
閷
贀
礛
畁
搙
揻
弬
塺
鰧
鰣
諈
蚚
虸
脙
瘇
猂
滣
橷
榽
捬
怢
冔
偨
逩
艃
胦
羢
爜
嵻
刴
鞷
霻
雦
褩
袟
蛦
蔤
蒳
縓
橖
暊
巰
堄
厃
颒
鋄
醳
鄦
輚
謰
綌
柭
偯
伌
骽
閜
躨
蹝
蚏
膲
痐
甒
澬
棾
傋
鴘
騲
頲
讘
諓
蠒
蚾
蓩
縚
縋
簄
篹
甝
炌
曓
雐
銠
鄽
轌
蝒
蚹
藊
蕒
簗
秜
碄
矕
瓫
椻
梖
擸
弙
幧
帤
壙
佅
鏛
蟝
蒠
碤
矁
撜
捖
坥
霮
鑴
鏹
醻
醎
蚦
虣
蒖
芕
腒
簜
撎
戄
巋
餟
閅
鉶
誖
螌
藽
蕧
膌
湞
廦
傖
鋥
覞
蚻
薘
蔁
萰
瓁
珟
趈
籦
痶
瀠
湆
鉋
裶
臐
脌
礸
濵
欘
抎
鬉
轁
蘁
碞
烶
濴
楘
偒
髬
貕
蝍
蒒
茦
膢
筣
礲
礰
硣
痜
珗
熚
烠
灎
埱
趧
葌
葈
菦
緙
爠
濪
汦
扚
憖
愩
悀
寣
婖
倎
鰎
颽
閶
鍤
褁
葊
膎
絚
絑
簆
璔
橺
曏
懗
齹
鷿
迾
讔
觵
箊
筤
撍
帬
峍
岰
壡
墑
侜
韔
蒤
繠
砈
瓹
燗
灦
楑
栠
擽
怤
圿
勄
鈏
諆
蔈
猅
鶪
銈
銄
蒪
竆
犔
焪
櫼
扸
悡
坴
匧
鷞
鶬
鵶
鱁
馧
阧
閴
踸
蜫
虴
耾
緎
穵
硹
瓧
烿
灐
宲
鸃
鷈
馝
飤
肐
窇
皘
氀
摲
寷
嘷
鳲
鱄
鞉
鉃
蠽
篭
睕
漀
塯
圲
黌
騛
霚
躩
躙
赥
袥
蟈
蜅
蚼
肊
耝
簎
竨
稖
櫾
寪
鞜
鞈
郲
畖
涽
嫓
噖
饠
鑔
錍
鄼
摫
拲
憅
忹
嶵
埪
鶠
鰯
顉
韅
艍
羜
罻
粏
鵅
髷
闤
轢
蠚
臎
翢
磒
瀿
槮
婈
墇
鰢
貺
蒦
粌
笐
灔
忯
侰
袸
蟱
翲
纎
窉
秮
秎
盶
涏
楥
昅
愘
怲
嫾
厪
凟
餋
頪
軰
覻
蚢
藶
蕳
蕛
瞂
晽
妷
垉
鰗
錒
躒
螝
翖
稧
揫
挬
慁
嵾
唊
匌
莍
甂
澓
娬
劽
騉
韛
蕦
蕂
籔
窱
穬
祻
硥
爅
歖
櫧
杤
帿
儶
駥
馚
讛
褏
蜯
蛚
腞
墏
鼛
隟
鐱
趻
裄
臄
縸
綗
糷
沊
毣
塏
馛
軝
觻
裩
籗
笚
矷
瞱
焸
揥
憗
龝
鬺
趪
謟
蠫
膬
糝
稰
瞉
椩
挏
懹
憜
嶟
峬
鐬
謮
衶
螔
蜐
蓡
聑
羵
砊
玝
帎
屖
鐄
輬
蹎
誀
襢
篟
篖
畡
熌
泏
剴
龤
鰐
詾
荴
耉
獆
潹
毷
揌
魓
髇
駺
鐎
釢
郥
蛓
盋
枦
抾
崷
尀
妋
圎
覡
蠜
粷
秙
焻
瀸
櫱
嵄
岎
堲
勌
俀
鼣
雧
苂
繺
磢
瞖
皩
潐
朡
曨
懅
庬
岅
妶
埩
侌
伂
詖
蛼
菄
臰
腣
粶
溸
鴐
顖
譄
褣
苀
箼
浫
嶻
屗
姧
塓
颸
霱
鎋
襷
膍
繛
綒
稛
矠
櫩
嶜
厺
驞
馜
胑
聕
糆
碐
癐
瘄
牃
楏
桬
擵
彃
嵠
孉
嬧
埾
阞
鄎
蠂
笗
甔
澟
憘
囐
厫
傤
鷕
逤
辝
葕
菧
糚
猦
爋
渒
挋
嵞
偩
齞
鉹
醖
詄
荎
澺
浻
旫
帲
鰁
輷
趢
覘
襏
縑
礔
矊
熎
煗
洔
殝
帠
屨
尲
壏
鷮
鴡
釙
豻
謞
膮
粇
甖
獟
狵
煹
橍
劅
偫
餖
觬
襊
蠉
蓘
硄
熭
灧
棦
杗
摏
揗
挕
餤
韣
蹮
臱
箁
琧
烳
撦
劮
轑
蟭
蛥
茮
碫
瞗
獽
煢
滼
摣
嬺
婛
嘊
鉺
釽
豽
罭
糱
碆
痆
橉
僐
龡
饛
軴
腇
縺
瓀
熁
滖
榹
楎
攈
挘
霐
鄑
蹪
蠩
蜙
蘥
翋
竛
矲
珱
栕
懁
墢
喡
呹
鍣
邍
踁
耲
糋
砪
歕
楈
攭
嵰
媫
匵
儌
俈
鮃
閇
鎒
釰
軦
蠆
蛜
祶
琔
溹
曭
弫
鼲
鯸
陑
貜
螜
紿
糓
睉
暙
旹
囎
匃
鞾
隌
邔
謪
蘯
胏
箯
爗
濲
氄
飣
雂
錼
諽
詘
衻
蛁
菣
脠
翶
緰
毝
崹
咰
劙
僗
侇
谉
襫
蠈
蔪
罜
縰
獶
渞
擖
扷
鵹
驖
頚
韲
鑮
鎸
鉵
讂
蠬
薴
畓
瀖
桘
愳
怘
夞
呄
凬
鳺
鲓
驔
酨
邤
訞
篻
瓽
烗
沠
桋
昒
尩
塖
訦
螲
蛽
藄
膞
膖
瘬
沶
棙
圶
駾
賹
誄
葧
胿
綩
砏
呧
騟
頉
鄈
蒥
耞
狫
梍
扻
嵥
壍
傮
騈
靆
雗
衼
腅
聦
翽
熗
斒
敆
嶐
孹
嫶
啳
俹
齇
鵀
鲝
餶
靮
鄪
豩
襳
腢
檖
摬
惼
劯
凚
凙
蓻
萀
筁
泿
敯
夓
嚑
乬
鵣
鈆
躃
覜
胮
翭
繿
糽
瓕
爖
熑
樜
椱
旜
捁
抏
鯃
遟
迃
谻
誽
蘵
葐
篧
竁
秚
毄
噆
匟
僒
駓
蘹
肹
肞
紻
篕
竩
睴
皽
澖
嶊
飹
韤
蕏
玜
梺
娎
嘕
剒
黗
麊
鱐
鬌
霒
谾
臦
肵
罊
筕
燆
歱
檙
樝
庿
孇
唀
鰌
醠
蹵
踒
蒮
糂
殜
暶
岶
鶀
鴖
顬
陒
鉿
釄
輀
跜
袧
萻
礇
盿
璴
濧
槰
榡
孄
姰
佨
霃
衉
脮
灨
洠
欨
樚
幭
峝
墥
厤
麨
鬀
餄
霶
霔
隥
鎍
賏
觡
痚
焋
栶
摪
懻
怰
娐
黵
陻
郍
螱
荕
睼
殾
欍
尶
寴
鶆
鮱
邥
貈
豼
豤
詉
虦
溔
湕
婫
姢
黶
魫
馤
鄛
逘
豦
衑
聸
罋
箵
槉
鋞
趂
覍
褠
蕋
瓸
瓍
焛
旤
摚
懝
唋
哻
僋
傰
鮏
駽
颰
韊
蔃
蓞
缿
縪
窽
椨
抩
剆
伨
黕
鐃
鏣
裌
艖
癏
漺
暭
掅
廗
鮆
饂
譒
詸
葾
菤
痯
澦
殧
梐
擳
墸
倄
鶋
驦
飉
鐴
鏳
銒
軲
軘
褑
翝
磤
璒
熉
檡
峅
鳤
靤
礃
璻
熅
懕
黲
鯾
鞤
鈖
輫
贉
覥
袩
砿
矐
瓆
涰
欮
槯
棖
恖
廏
嶀
岯
嬙
堗
趦
檭
暞
攕
抴
婩
鼘
鱨
鰷
鬇
鞎
遌
趓
襒
蘜
荰
翍
繬
筡
稢
瞮
愞
嵢
崫
倇
鴍
鋜
蘺
藰
聏
縤
粸
睅
欀
嵤
岪
岝
墧
鬹
鬕
餭
眑
湽
愻
堖
鸖
鱍
魐
髼
驡
銊
鈁
訒
蓕
翧
磓
潝
侼
齆
鯕
騆
餷
鉊
酻
諃
褖
秢
玽
瀊
洍
櫨
橊
槶
恀
徸
弤
崨
垷
圽
俒
齗
鱮
駖
轙
覂
袉
腲
翨
祰
砋
皼
疈
瀫
毞
欆
懴
嶣
噞
儖
傽
伳
黰
鰇
饊
銩
鈃
譅
蘙
蒬
葃
矘
獑
瀄
漒
拸
嶱
岹
婎
駞
霋
豘
蟶
罦
絘
烖
淃
幐
坕
鯟
鑋
轛
賵
謥
襋
蟐
筬
窚
矺
獛
杹
嵷
嫟
墆
哣
顙
豞
捇
慂
孴
妔
黂
鰋
鏆
郂
軖
跙
譱
衇
竧
秡
疿
焲
湻
殩
橗
嶭
垖
亄
鵽
鰊
駣
醆
軧
蟴
皏
癴
暆
鶾
鮷
騅
釃
迿
賷
貏
諣
笿
痽
狜
渨
橸
旔
嵍
傁
俿
鰼
趡
紴
籕
癪
澸
棔
匳
鼦
鴔
鉝
豶
覛
蠯
艔
羐
綧
瓐
璷
檆
暯
峔
鴽
陾
鎦
觮
螿
臋
耴
炐
浨
欛
庌
乻
鯔
髱
鎁
謍
訬
覕
裦
腝
翴
筫
皣
燍
濸
毼
敪
壜
鼚
鹝
鵔
轃
輺
貰
螊
繗
緐
簯
涀
暿
岮
塠
哤
咠
剙
齅
骾
飺
韖
閄
鍈
蹖
藢
萺
萗
纉
綡
璓
熂
敜
摿
怾
怽
嶬
埁
偋
馵
陗
鋾
襸
蠳
翤
碒
榗
妐
啠
鮦
韹
轖
輼
趞
誷
繅
祪
獧
歗
椃
恷
宩
墤
唨
頺
霗
鏌
郺
絋
砐
璌
淾
櫬
晆
恟
幠
孡
噮
匞
鸉
鴙
鳻
鰜
髊
騀
鐓
躳
跒
臅
脀
羫
穮
畒
烍
溳
毶
橏
忨
寏
奩
塳
傂
倿
鼄
鸆
顄
頥
靇
鐔
鉟
謑
蟼
蛷
葪
笝
穛
癠
珕
嶴
齚
鐠
鋺
邭
趭
賩
衈
荶
穪
稄
昗
慏
徶
徢
帣
鯆
駌
靏
隝
薓
禭
瀴
擨
抈
齩
魶
隢
鏾
鄳
訩
蘷
膙
耡
緀
笲
祽
矔
瞈
爃
溮
毈
榰
梋
懘
弣
岓
奞
喢
鴥
鏨
邩
詜
襘
蕍
菃
茒
璤
玀
橜
椵
擆
憒
鸋
鴸
鮧
闠
蠾
藡
簚
碬
獇
椷
拺
抍
頙
虆
疻
櫖
昈
攱
尦
噒
鷶
鴶
鐈
鐅
贑
翓
罤
絗
笧
璛
煝
扨
魿
蜹
蛡
糃
爎
烌
湱
櫤
晭
敡
攎
捵
惾
悐
媡
媋
厬
傯
乴
黖
鵋
鐝
謭
訰
蠦
縩
硴
睮
盽
盚
瓉
熆
漡
敽
岾
嗠
鼵
飀
釼
迱
譣
袹
蓲
礣
睰
懙
怴
媐
飁
顜
雈
鏚
錣
藣
臗
焇
捛
惍
匫
僆
鞃
鞂
轗
輣
諹
諀
薭
浺
壨
垘
僼
鋙
釯
跮
謣
腛
聠
紖
糘
穱
稴
秹
碖
硡
歅
椔
暡
憻
寭
嬥
嬇
妵
塸
伵
驂
雬
闒
鍡
錎
釚
郔
襹
裻
蘀
磼
眪
醶
蛖
笜
眂
畣
燯
桇
杔
曤
僷
鱑
韗
薻
爂
瀶
麆
靻
釮
釓
郼
葂
腶
碅
皗
撔
摥
揬
嶤
嵦
嵔
鶃
髨
襎
蠮
蝭
菨
繮
熐
煪
洡
峛
黳
黫
鯬
鞹
錇
釸
軷
趩
趤
訮
脺
翗
礀
犑
焏
烻
橎
攦
弴
崣
偤
馣
詏
蠸
蛒
胵
縒
毸
暃
斪
鴢
骿
轊
蟿
蓎
茰
縲
煏
淣
沗
桻
柪
摉
揟
掝
恦
弞
儑
鯚
駏
鉩
轏
蠠
臕
剭
頀
鞀
袎
藫
蓾
苬
聁
緷
籜
簈
笻
秨
潙
溣
攑
怷
帗
屷
嬍
娾
嚹
僫
偧
鸌
馪
轜
誻
覭
薽
脋
聧
篵
碝
甐
氉
塶
圸
噡
鑈
羒
篺
竮
皫
焆
桞
摓
搻
噳
鰔
靅
鋚
鋑
釶
賮
譍
虲
藵
皻
欦
慦
嗋
厱
麮
鵚
鬊
錪
鈙
酄
郖
蹸
跾
賰
譂
蚥
胉
耼
繵
禷
祱
癅
燇
毰
毭
橁
椖
懧
崺
噟
嗂
齖
鬳
鎜
蹫
縏
箿
柹
幖
峐
岻
齼
鷐
鵏
鮌
駧
駔
颵
韍
鏏
錿
豵
螙
蔉
眱
爉
淎
杚
敿
嶞
嵹
僨
侙
佱
釖
邞
蟤
翷
窙
梌
掜
怶
鶨
餱
飋
轚
躆
讆
詌
訜
茥
繉
緉
稏
磟
櫝
樏
椳
搹
庮
哵
逳
螡
猣
泴
懱
婟
娔
黅
鞸
鐥
邷
軮
誵
薚
蕱
菚
膉
糩
痸
甅
炃
慛
幮
侱
黤
韰
鈧
遳
賻
謶
竕
睔
炥
懯
嵈
娽
坹
啔
鷔
鷑
髶
鈨
輢
軜
蜦
腤
瞴
燰
瀗
漞
湗
涾
毟
昲
搮
掗
憮
尵
嬽
嬟
噋
俧
齙
鳭
趏
蚐
膱
殬
怋
嫷
鸗
鰴
髞
銴
諅
蛨
蓗
萟
綟
礹
眃
獋
瀪
濏
揇
徖
嶨
岟
孍
噦
哹
驈
餁
貚
螰
癳
毺
曅
攨
嬎
乯
鰿
鬫
霟
閽
鐊
鋨
鈒
豒
讑
覰
腟
簂
竀
癛
氁
椯
噧
呏
傠
趗
謺
觛
蒚
罖
簤
盓
鼅
鷫
鮐
骬
蹨
踓
貀
豣
裠
薼
萕
聣
箳
穔
毇
桳
懬
壥
壀
垥
哸
鴚
鱳
醓
諰
膯
糪
砙
癨
瘲
甼
焭
捾
駻
駵
顈
釟
踍
趬
訤
觾
袲
蟚
蛵
翉
箈
矄
眝
煔
灹
渳
恈
幝
嶛
媏
娝
堚
鶮
駘
鉡
蹃
襱
藮
蓛
獪
猤
搇
媅
壦
垀
鯩
雓
閿
諯
詽
覉
磶
睷
瓺
燱
炢
毃
殈
樧
惐
陠
軵
贆
謵
祑
睶
濣
欫
橰
唘
飶
鋲
鋊
遻
躘
赲
豅
覝
藙
蒑
舼
珁
瀤
澅
慔
鼺
鵉
鮘
陓
誶
藃
璶
瑌
樬
怸
乼
鶢
鴩
魛
餳
颾
躟
贕
裧
蕘
蔰
膼
腏
聅
硱
猽
煛
瀎
汬
麔
餕
軄
苵
脜
羻
矎
犙
斣
斍
揂
憃
悘
屒
喕
厙
鱩
鰙
颬
鑤
鐁
錆
醷
襽
脄
絧
璯
焂
殰
搄
廎
峊
黀
鶽
鶙
頮
郬
蜄
繂
絼
瓝
嶡
姴
匨
饁
銂
躖
蠀
蜬
蜏
膔
筪
穦
穃
痻
痥
濝
欴
柋
嵳
孁
嫯
嗊
龒
鸘
鞼
輏
蒏
縅
籢
獹
奯
匑
鶭
馦
鑗
錭
詍
綛
綇
窏
渪
泈
摍
挳
愵
幦
寱
儠
鴬
魗
騢
酛
輨
螤
蝅
糤
硳
猆
濽
嬏
齘
鼸
鶣
鰑
鰏
魦
軬
謤
葞
籶
祒
汿
欇
柫
勨
僃
俖
鶶
饻
鑯
鎐
褽
螕
玂
獿
灳
歒
懪
嶚
鳿
饝
飸
韸
雵
鏼
賿
譢
虊
苉
瓡
淿
淗
榺
斚
愌
嬓
傓
倽
驝
駍
阫
鏱
醥
軥
讇
謈
硘
炧
嫧
匶
倹
齃
鷡
鋧
軹
軭
詃
裭
穝
稁
磣
漇
殙
慻
峷
鼮
鷾
顦
隿
觰
觪
袦
蝄
碙
璢
燘
烉
樄
暬
劎
僠
傡
鯣
頾
鄊
謯
蠌
蕇
葝
艪
聎
礥
砛
澲
朄
嚲
噄
倱
鼳
鏪
蜳
蚛
蕬
聀
綳
礏
磍
矑
烾
昿
斞
驆
騺
顋
鞪
闛
閕
銞
郩
軕
蜌
蕢
膷
稬
皔
燸
烞
橭
嵧
匒
馽
鞛
錖
鄇
踜
踛
藲
歋
樌
楇
杛
曎
峜
塣
鼀
鱦
馲
蟩
繯
籋
礈
磆
矹
玌
瀳
濿
漊
涹
欯
櫿
樍
柨
怇
嫴
鹻
餝
頯
靪
躼
蟸
螼
疶
瓪
珬
澷
澰
椞
愝
鵴
騻
隉
閁
鄟
轐
軞
諩
蜰
荲
绬
紁
爥
燽
炾
濚
毻
掆
挩
愇
嬱
麅
鋿
鈲
蟨
磖
慡
惖
惃
幩
坸
凁
兤
齽
鱡
鏧
錔
蘌
纄
竍
熦
澿
岤
婜
唚
俼
鱴
飦
霢
鑙
鎲
醕
藼
蔖
蓵
纃
緆
獡
溊
殱
椣
斔
懚
麎
鬞
鬁
釾
趹
訨
覶
襺
萴
縖
筨
炋
毊
擈
捹
捪
巁
嘝
骩
顩
韄
蠝
蚠
甧
檋
峺
寋
媍
娦
鴌
閵
鋣
逪
讄
覿
袣
螴
緮
緄
綞
礭
獖
焍
瀂
榓
枤
懫
憄
唕
鹸
鑂
酜
軶
覵
蟗
蜛
糿
疨
璖
犣
涃
鼖
鵳
鴾
鰳
鰛
馯
隇
鉳
鄬
郠
轔
蹥
賗
褹
蟁
繥
禯
焥
欪
橃
暩
怉
嬼
僓
鲄
輐
貃
蔛
葋
膗
簛
涁
橂
婝
塪
喗
傼
鷎
飰
鉖
邜
蛕
菮
篒
癷
疜
灇
澾
壚
鷜
趲
虠
艤
罎
桽
戧
嗸
劗
俲
齳
麡
鶊
鯒
鑹
醟
讍
蠞
虭
睧
癉
猏
潷
渵
曃
嶯
埬
囆
嘾
勩
魬
鍯
輤
覠
緧
硛
樇
摕
姲
鯶
馰
閛
釲
踀
詗
蘲
灓
滜
栣
攗
摌
憁
孷
騬
颴
镾
錛
腉
胒
聇
碮
濗
殥
歏
塎
傶
黸
鶞
餴
鍃
鈄
趇
萈
濜
殔
徱
峀
奿
唙
偗
鴺
酑
躓
譈
誙
覫
碊
睈
瓼
猐
燣
澑
澏
厧
齫
鷷
鱭
鯺
阦
鑐
鐌
赾
謼
蠇
蟦
蛂
葏
繨
欰
槹
梇
悿
媶
塐
匔
儩
儥
佭
齓
魧
鈓
郀
贙
膡
羠
簓
歽
櫭
侺
鷤
鷅
霵
鍁
賟
蒘
罺
簢
炦
摦
戃
忦
嵡
儢
齛
鄶
趛
詙
螑
蘞
礂
樐
寠
嫬
噊
餢
餀
闑
鑕
鏶
錥
遪
輄
蹗
賝
觠
籪
穤
橲
曊
擛
撟
恜
屶
匷
黆
麘
鰝
魞
阥
萶
舽
碷
旞
庺
靕
鍆
鉠
鈌
輁
豱
虇
蘬
焵
岴
嫞
鵗
飳
輆
踑
覯
裮
艕
膐
硈
瓋
獥
瀔
榵
敒
撏
彏
僲
鯗
鮶
蝩
肍
耚
緸
桰
懩
傐
鼶
鶁
鈳
鄵
誱
蟂
螶
糲
沞
汷
愋
廅
髿
韀
靹
鏙
踋
蒊
痮
烐
淕
橵
嵼
阠
镺
錻
覼
蕮
罁
燛
灻
毲
恎
徰
娏
隵
鎈
醗
踚
磰
磃
璾
濭
沑
搱
尮
厊
鸍
鷵
閸
褜
褄
蠗
螪
蜔
蛗
菷
瓇
摤
鷊
顅
醼
逫
迧
貵
螐
羷
砞
牔
炠
慪
峹
鷪
骪
韇
钄
鈛
螒
糄
穁
濌
湈
攂
揘
齻
鷢
鵤
鴋
鏺
鋱
踾
謲
誢
蘒
蕕
蔮
緦
畭
毠
歑
嬳
嬔
壛
靀
褗
羘
纊
稐
砶
瀢
殶
梸
孈
齴
齝
麜
鷏
鵃
鯦
郻
蚭
蕵
蔅
纗
皹
梷
搎
捓
挔
忀
孾
譵
裗
蜤
筂
窶
禞
焹
焒
烲
灄
潅
漜
枾
枽
攛
匩
劶
黭
鶑
鵱
騌
鏰
綤
絎
櫇
撊
懀
凒
黺
鵊
駇
稪
矵
湂
巗
嬠
鬝
驓
餎
鎙
釅
謘
誂
觲
襗
螹
蚫
艬
紌
慗
峵
娧
齠
鱰
鮬
鋖
鋎
諻
薞
翵
窲
漵
槒
嬚
麍
鵓
鯏
駷
馻
韴
閍
醦
貁
譾
謉
蚸
橶
樢
樎
愲
悂
儙
黬
銸
鈻
譳
虳
蓌
綨
竐
挗
媹
姾
偮
鬠
駊
餣
鎿
鎟
鋦
賱
聐
翑
戂
劕
刯
儾
鳹
郹
豃
襉
茟
礗
眖
椕
桍
捚
鴀
鮅
飻
鉣
邌
貱
譨
蘮
蒫
灙
溩
溗
櫣
楐
椦
嬵
墶
坘
傊
鼥
鯋
鏝
覒
禉
溛
媘
鸙
鎄
鄸
輎
袬
肒
瞲
慺
劷
鱶
颮
霌
隚
隀
鐉
遉
贐
貇
蚟
藒
莏
茾
艥
耬
熮
澢
昘
幘
匎
鰦
魪
饇
鐆
躢
趃
謱
罞
絍
獩
獊
灗
澻
峓
孎
馢
蜠
艈
燲
歞
榿
憴
坾
鵆
鯴
鑖
酀
諘
詋
莻
紲
竳
稝
巈
嵮
僁
傹
鸄
鴓
鞱
闝
諿
裺
篞
筟
秛
弲
嵪
鷱
鶷
鬎
韷
鞝
鏒
邒
賉
袶
聫
綥
砤
孂
嬐
婒
姂
傴
齂
魱
駋
鏩
粴
潱
溭
涄
檈
棇
壉
鬔
郮
躴
譸
繷
祮
皍
炞
灖
榒
桗
曑
廀
屪
壾
噅
勏
躗
蠨
薥
秿
磇
砨
瓗
煯
烡
毢
搑
幬
僌
鼝
鶛
鶌
魝
駂
餼
韯
錽
錰
錊
酟
賳
褳
腬
翪
繏
硻
矀
幜
嶑
鶅
鵂
騘
顨
闏
蜵
蜖
膭
燌
濍
浾
沀
歶
摾
搝
麉
飵
钂
鑟
趶
誳
虥
莌
艫
縎
磽
犩
涱
梥
懢
愸
僀
鍸
鋷
銿
謕
袳
衐
蝁
倃
鷌
鴊
鰮
鯑
鮔
霥
軺
螷
蘝
艁
筃
竎
枈
娺
堫
顭
鉘
譝
蘉
藈
藀
獔
攌
巹
崸
垼
匲
侚
佄
騿
餦
顀
鈋
鄁
轞
贘
賲
菺
暓
壧
麧
軯
豛
裚
蠐
蟽
藧
縇
筄
疦
棞
鰫
騦
餩
靲
閚
鋢
鋍
鉔
脻
縶
穘
燢
烵
濖
撯
搚
揨
恞
餫
覎
蛌
腖
礘
湤
攍
捳
憆
塧
儧
餪
頏
鋠
貗
蜁
蘾
縥
瀱
媰
鷭
贜
襧
薟
艩
肑
羦
斏
恗
匢
齔
鯼
驜
騝
鐛
踲
谸
譥
諞
襵
蘨
緿
禲
礝
盀
煍
湒
敟
扝
嶁
嬘
魰
顝
頿
韒
鐒
酭
褺
簀
瑼
淭
晘
攐
揱
夦
傏
黋
鷬
鰪
鑡
趰
蘛
箃
晑
捙
慩
幯
嵟
娂
塛
韕
鎀
趽
覾
覹
蟔
噕
勆
龓
鄝
轣
貋
讅
蘻
蘱
筙
皟
瘱
氞
梕
擟
憢
嚺
儯
鴄
鰉
陯
鈘
醏
稨
睤
桛
擑
塷
鳵
鮤
駚
鞽
轠
譤
蘣
萾
絥
矡
溄
暛
幋
嘳
齀
鶝
馟
餥
蜟
蒰
腵
皾
畃
潌
潊
榏
鴪
驐
驏
霘
鈂
軈
蟰
蟘
肗
罆
絤
糛
箽
竓
樭
樤
憵
壋
鍷
辸
貄
觢
藬
脨
晎
崓
坄
匬
魤
騗
韥
邼
蛪
艣
艆
礯
瞝
炄
杊
巊
鰒
譋
覄
脴
秐
猈
瀭
斘
搈
悏
嘋
鮴
鮂
魻
霯
軙
躛
賘
虶
聹
篎
硸
皳
曂
忷
孲
嬻
壗
凲
鞇
簅
睯
獫
炨
欚
攄
揁
廫
幉
媎
媇
僘
鹷
韉
鍄
蜸
粚
禣
璭
獱
柗
剄
鰞
魺
髍
莥
胇
耭
箲
浶
椢
悑
嚝
鷼
鶧
鵧
鴱
鬜
躤
豄
蛶
蚲
胋
繢
硆
滰
攇
墵
勎
鼆
鯐
鮢
遧
虝
聢
秗
巐
鵵
鯞
鮺
鍿
鄿
轋
貦
譑
臔
腀
胟
磌
瞃
歝
槣
嶾
宺
娊
垁
勡
鼰
鷻
鷒
郣
觤
稵
圦
鼿
鰵
駠
霼
鑏
鎃
軠
誫
蘟
腪
肔
柡
慸
剾
鷛
軉
肳
瞕
犞
嵶
嬂
媀
鵛
鯳
驧
遱
輇
譇
詂
蝫
稦
疓
璼
曗
嫎
婱
勴
剓
鴰
鯎
銢
跠
誯
蘳
硟
痭
欭
榸
齈
鍻
釫
遀
輡
躽
誺
舮
繱
繓
緕
焣
涻
墛
鸔
鱋
顐
韟
跉
碂
欩
橨
塻
鴮
鱪
騹
騪
隁
鐼
鐯
釥
醙
軪
躮
褤
藗
艊
舧
翞
翇
綆
簐
竬
畘
瀻
瀒
拁
唺
鼨
顊
鐂
銯
賯
礆
硢
砓
漛
橠
榐
怬
婽
齸
鷋
駶
雡
鏷
貖
螩
蕽
粭
碋
矃
瞊
焀
溑
扟
俕
鵒
隫
鏬
錟
跭
藛
蕔
蕆
茊
罀
玸
猑
煫
櫦
峾
媝
唜
鶟
軐
褬
羳
縍
磭
磠
漽
徚
蛿
芖
灚
堏
鼞
鰄
餰
錺
釳
遾
謆
蔨
膒
糔
籎
窧
矏
樳
妰
埉
咞
黊
駩
銐
讗
諊
菞
艂
緶
紼
瞛
喖
鮳
魵
趥
贂
讏
虄
粀
簼
箺
竏
盕
焽
濢
氌
椺
擙
幱
鰬
鮩
髚
鑜
鎠
蹘
蘕
聭
糑
玣
烥
欼
攁
鴅
鯘
顃
靍
靋
鈯
鈟
軡
賧
褼
蒣
聥
竱
煂
烢
瀈
浖
汑
梻
揊
幒
壣
鮞
覐
脼
紣
矪
熩
娻
鴭
鮚
鬗
驠
騡
饏
陱
珳
浝
幥
嶹
麭
霴
覴
覣
褨
芌
穲
睓
槆
勽
剈
鮿
鋟
郶
軣
誝
藖
燞
熡
濥
漝
橽
庍
嵀
尳
孯
嬀
嚽
頕
錗
邖
豂
螏
橩
崜
僺
鼤
餯
顤
軗
賶
賌
蔩
礢
焎
炂
梞
撛
婨
嗴
傟
鹺
鱌
靗
銏
訋
衴
萞
萖
聬
耺
瞦
瞔
爡
憈
嬆
龣
鰃
鎇
詿
詚
訙
蝊
蛝
絊
爳
槧
暽
晇
擝
懤
峲
厴
鷆
鱞
錁
軅
跊
聺
聜
緽
綐
溌
巕
墔
鼁
驨
驙
馶
饄
飿
醔
螦
磸
燷
熽
炇
旕
攳
慐
鳫
鎑
酁
軇
貥
讈
艝
纅
篫
窤
礷
焳
焈
涋
搸
妅
嚌
馷
饚
訅
脵
瓄
爙
瀃
殨
揤
捠
愹
嶩
嶘
墂
嘺
鶔
鴁
隭
遦
蝧
蚽
耟
絴
燩
娹
鼭
鵫
鴑
鱕
鮵
雼
鋫
邎
訠
稫
矈
燤
熪
洕
暥
傄
骵
靎
雭
鎤
蟵
蜭
蒵
艜
耛
砇
瀥
澃
曍
嚠
鴼
鰠
騸
頱
韚
軩
謽
胢
縧
縘
竗
穯
硽
睳
烪
愑
髸
騥
飅
郆
趀
謴
穳
湺
檘
樈
搼
怟
嚍
哛
鵨
鎫
蹳
踻
詊
訲
襓
袰
蚙
氝
栍
忶
嬊
媩
夁
嚪
鶳
軤
踷
諙
縨
稩
癚
欔
鼧
鳼
鮝
颹
镻
蟣
葤
碀
朇
幊
麠
鶐
魹
閊
釛
躷
諚
褮
薣
蒷
糮
焩
塒
鶦
騇
隦
闙
鐰
錓
鉇
遤
趝
贎
諑
訍
襑
衦
藱
蔋
磀
焷
樖
昁
髰
蚒
蕄
艡
縜
稤
瞨
爘
燺
沎
棛
梤
徟
弳
嫸
姭
嚉
雤
鑥
鐷
賕
睵
爦
崉
嬯
鮽
鏔
軳
踗
蛠
薒
磮
澝
毿
毥
壭
唟
頢
靵
鑘
贃
褿
蘈
莡
艢
碵
癁
猉
殦
歄
檅
抸
愂
豴
襨
蚎
艠
穕
爴
煘
濷
劺
鑍
鑉
錷
錃
銟
醀
蟙
葀
糏
竌
疀
爈
焁
濐
櫮
櫠
梙
劸
儮
騼
錌
銰
豾
衳
蔒
蔐
聄
羪
縃
磫
矋
眓
毮
捑
徺
嶳
噿
鷣
鱹
駤
輽
螥
萒
絈
甉
懏
傸
鶕
騯
駨
靟
陮
躿
觨
襅
裫
蝬
絉
紎
籅
爒
煰
溨
毤
榁
憉
嫅
奟
奒
勜
鉙
躻
蘃
蔜
絩
糡
稶
炿
楾
揋
廜
嶎
峌
埐
鱛
鬸
髛
躀
跥
贚
覮
襣
燪
焧
渆
娨
奦
塦
垑
喸
侤
霕
釻
覟
襩
裐
耣
糣
穒
瞣
澩
懎
廭
嘃
勈
靾
闦
鉕
邫
軁
藅
胓
聉
翸
槂
厁
匓
齨
鰀
鮙
騴
鞰
閌
遃
踂
誁
腡
耫
礖
熃
瀩
浳
欳
揯
憏
嶥
嬹
媨
媈
勂
鷍
鮾
騽
騍
颫
陙
銽
豠
疩
牄
淧
歚
斊
嬕
嚋
鯫
閳
錹
鉪
蜶
耯
耓
纝
籡
熓
熍
焤
毩
撨
岲
倊
鵭
鮛
髉
顲
鍽
錈
豥
裍
籷
竰
穙
碠
熧
炍
欜
榌
擮
撪
懖
嵭
壪
麬
鰚
馩
顪
隯
錅
癄
璳
爑
澵
攊
傇
鼼
馸
餇
鏲
銺
鄥
躎
譗
覱
蠴
蘏
絒
笷
擜
擌
匥
鑝
鎪
銌
釠
軂
誈
襔
蘎
蔝
焨
炈
槞
梑
攚
愥
騔
鑇
誟
訯
襇
袻
蠤
蝆
縔
瓭
暷
屫
鱢
鱜
鮖
镽
鎥
賋
蔶
聓
瘶
妿
麶
鞩
鋵
趘
諬
蜝
蘍
穥
瞸
爄
慀
囅
鵍
鰸
魲
髝
鋔
躵
諥
訵
螸
縙
糫
慃
廤
鵦
鵇
鴵
鳨
鑬
聈
碿
瞁
疅
瓳
瓰
瑻
崻
勓
齥
鵿
鵘
韢
鏫
錜
鋛
鈬
郌
貾
豧
豟
譧
藆
糐
灛
欕
憦
愱
忰
顂
頛
霷
闧
閐
鑩
鏎
賆
諁
熫
潉
樥
擶
懛
憥
鴲
駗
鞖
閯
鎉
酠
誛
螧
縬
瞘
樦
榋
梊
擹
揧
掶
掚
頶
闣
賐
蟍
穓
礍
灁
橣
憠
鳬
鮉
髜
駫
鞐
鏭
鎎
鎆
鋓
鄻
蘔
瞺
瓲
烼
橮
啢
鯅
鋴
輍
蒕
萙
曥
鷝
鶜
鴤
遚
蓔
猌
犥
爏
漗
橌
榪
忁
媑
鷠
鱱
騚
駀
鑎
鉜
醈
聗
徿
鶎
鯍
骮
驇
餏
鏿
錴
錉
鈝
覨
萔
濻
淁
婮
鯲
鄓
謒
襰
瘷
瓱
瀐
潂
柼
懄
儣
儝
麙
飷
顮
闎
鑧
釞
襝
灍
橳
鶰
鮲
饖
鐋
鰖
鮼
駳
馾
韼
睝
嶖
麱
鶈
駎
餆
鑆
鏥
鋝
緓
榩
梎
鶍
鰘
驑
鏯
鍲
躸
覢
獤
橻
嶿
鹶
鵥
駲
閝
踙
溬
歵
樮
桏
鵢
鴧
鯌
魥
鈠
耮
驋
鑦
銁
郒
嫹
鯄
橬
饓
鯂
嬦
鵈
鯜
齭
橯
駯
檂
麲
，
“
”
：
）
（
quot
10
20
12
00
30
11
15
39
100
gt
50
40
2010
16
18
amp
13
25
2000
14
60
2008
2006
80
2009
2007
17
21
2005
24
2011
the
19
lt
2004
2012
200
70
90
2003
22
of
2002
2013
500
28
and
23
26
2001
300
1000
35
27
2014
1998
1999
29
to
45
1997
1996
31
32
2015
1995
apos
you
36
in
1993
1992
400
1994
33
150
38
1990
3000
1984
120
75
34
1985
1988
37
1991
600
2016
42
48
95
5000
1987
1986
1989
55
65
800
85
1983
1982
43
98
46
93
1980
99
1958
41
1949
44
56
52
for
1978
47
1500
64
58
51
91
54
1979
on
72
53
1981
49
3d
it
62
57
96
2017
000
63
68
1956
110
4000
66
is
97
01
67
86
78
76
iphone
05
88
180
1950
250
59
windows
08
with
92
61
09
your
1945
led
82
700
1200
130
73
83
07
1960
84
74
81
69
87
06
kg
71
89
94
160
03
77
that
1955
1970
6000
1959
1957
1976
1952
04
1961
1938
1962
02
1948
79
1964
1965
dna
1975
1937
1953
1963
1946
140
1977
1966
1954
1972
1947
1968
1940
1973
be
ip
can
1969
1939
1951
1935
360
1941
1974
8000
1936
me
re
1942
1930
sci
ipad
iso9001
1944
350
900
pc
2500
1934
cd
1927
1943
1971
105
1933
10000
1931
don
dvd
1928
qq
by
108
1932
1929
ipod
220
my
ll
1967
101
240
1800
170
as
all
or
android
cpu
from
125
de
1600
gps
boss
102
1926
touch
1300
104
450
2020
7000
106
x1
128
web
ii
115
1925
ph
mm
107
320
103
ps
112
1100
2018
mv
gb
863
260
1920
210
this
ei
are
cm
ios
1924
280
we
230
one
reg
3500
up
135
1900
at
109
5cm
1400
know
no
nbsp
not
gdp
journal
1912
118
app
an
190
113
usb
ibm
china
111
like
java
114
116
1923
mba
3g
1919
1922
5mm
123
ve
121
1921
time
1911
so
122
have
126
117
internet
nba
love
iso
pk
what
flash
1918
out
ceo
270
ct
mp3
cad
1700
will
1914
119
linux
vip
750
127
1913
university
sh
1917
145
international
124
132
168
650
wifi
new
min
129
do
john
mg
just
get
550
4500
but
138
pvc
20000
211
li
if
erp
1910
136
wang
go
165
ic
tv
1905
more
133
1915
br
game
175
131
480
yy
1916
155
5m
ok
365
et
156
9000
152
380
148
137
server
2200
ng
15000
google
134
ml
142
144
973
was
205
1908
intel
1906
wto
when
merge
microsoft
exe
310
201
facebook
151
158
rna
146
206
excel
he
plc
2400
139
2800
1904
185
sql
330
141
cp
1909
12000
zhang
ms
1907
science
420
aaa
id
2100
202
850
iii
143
147
ac
hp
xp
ieee
now
there
they
2300
acid
225
153
176
cctv
dc
204
2d
2600
154
207
192
pro
162
208
world
been
hd
gmp
256
pe
his
340
1902
178
186
ce
photoshop
about
1903
lcd
163
ktv
157
autocad
195
make
npc
see
system
149
chinese
let
215
net
1898
172
visual
m2
198
has
203
sd
rpg
ep
221
196
dj
183
api
167
290
way
3200
188
diy
2cm
com
166
30000
159
2mm
235
f1
164
got
b1
182
2m
212
vs
la
isbn
our
184
209
1901
216
173
5mg
1895
161
5g
3600
169
liu
who
down
520
her
co
3mm
214
370
189
218
312
life
174
187
4s
171
chen
research
460
never
3cm
co2
tcp
only
255
gsm
say
right
she
over
david
181
232
213
222
michael
304
560
264
pp
b2
10cm
back
1890
226
aa
their
red
os
177
map
cbd
179
199
238
1896
301
720
193
gis
ab
want
245
office
xx
iso14001
2700
1899
them
mtv
play
219
316
technology
word
223
802
430
1860
217
how
abs
194
1894
333
197
org
baby
228
oh
305
1897
265
gonna
315
ain
twitter
191
cause
won
rom
al
1850
oslash
job
233
into
b2c
1ml
224
667
need
540
8mm
html
through
asp
580
take
3800
410
tft
atm
pci
vcd
318
oem
other
paul
which
fi
236
james
m3
253
6500
1880
ccd
950
325
275
1g
day
o2o
960
music
amd
adobe
name
390
680
640
b2b
xml
229
jar
chem
5500
1cm
234
good
spa
5a
ss
where
atp
227
live
high
1mm
sun
abc
here
231
302
4mm
15g
50000
cssci
1870
6mm
248
1840
263
tmp
252
mac
285
en
308
inf
630
4a
ai
man
1889
bt
239
meta
242
530
bbc
324
management
1885
crm
4cm
free
246
uv
3c
mr
cs
268
istp
243
237
engineering
dr
than
gprs
sp
440
1888
258
pcb
307
first
321
robert
sup2
3m
cg
303
find
8cm
wi
pdf
1250
262
php
10mg
use
ie
1884
oracle
620
1892
1893
247
american
266
seo
also
p2p
4g
985
244
fe
1875
1886
470
306
241
1882
school
286
unit
288
2g
273
iv
cam
510
254
pcr
309
come
some
rs
780
yang
1861
3300
iso9000
max
lg
think
any
its
college
ups
na
6cm
1881
black
276
rock
251
4200
323
pet
1887
ap
375
give
si
us
311
278
english
peter
1891
820
10g
oa
7500
logo
dsp
bl
power
long
too
1862
girl
king
610
249
30cm
fm
group
1883
vol
272
hiv
257
1876
ordm
322
best
4800
mri
1080
fda
10mm
261
nt
660
super
1m
center
ui
335
298
np
7mm
micro
based
319
ram
618
even
1864
ca
off
auml
dos
20cm
267
18000
two
show
1868
cdma
mark
vc
25000
860
980
design
var
wanna
home
fun
cmos
friends
business
570
1865
national
1874
most
vga
emba
30g
city
282
001
13000
274
km
345
1050
stop
328
then
295
386
mpeg
st
suv
vista
a1
vi
283
help
basic
11000
house
heart
ouml
281
bug
mobile
service
dll
application
methyl
rfid
100g
287
1871
490
760
0m
ge
1872
people
hr
512
100mg
psp
av
ppp
1848
away
william
326
1879
710
284
1mg
hdmi
317
271
wu
15cm
259
840
feel
485
10m
5kg
1877
1873
il
jack
lee
269
di
313
auc
502
1350
289
fc
336
999
association
many
293
george
td
style
ul
ld50
1867
1863
each
inc
dv
3100
mc
tell
4m
blue
327
299
bios
385
2030
314
big
1866
296
355
cu
much
3400
1280
24h
own
670
studio
keep
6g
ppt
conference
around
information
1878
class
1830
mp4
why
1851
332
1650
control
358
dha
m1
vr
5ml
338
297
279
1644
sm
well
7cm
bbs
352
work
always
9g
star
easy
334
8m
ni
277
425
end
had
type
richard
880
6m
air
pop
a4
1750
ftp
16000
ad
501
htc
007
t1
770
access
tcl
sata
part
systems
40000
ever
368
qs
ta
ltd
mol
media
742
1855
cc
555
isp
set
1450
him
292
1853
810
still
pvp
http
1859
3700
strong
3a
real
art
1869
331
1368
337
402
1856
1820
1150
matlab
thomas
a2
294
le
366
using
356
bb
smith
different
401
ci
kw
405
361
zh
nasa
materials
329
nature
1h
ch
20mg
2mg
du
mail
data
every
372
while
going
291
712
740
10ml
ar
ol
0mm
ufo
charles
20mm
tvb
apple
iec
project
sbs
342
690
920
jean
50mg
343
include
eva
haccp
video
cf
vpn
society
730
song
institute
cn
369
756
version
des
sns
590
award
css
lte
xu
fbi
357
after
level
very
1858
again
tom
830
dm
before
406
young
lan
3ds
cr
arm
pos
night
395
344
100ml
525
1024
yu
384
403
351
398
hello
354
said
381
768
762
sap
1854
msn
book
353
true
339
javascript
348
2900
367
911
346
362
359
little
4300
701
look
phys
club
times
14000
382
xyz
number
ak
mind
huang
iso9002
412
am
top
master
green
int
404
were
4600
em
better
1852
408
sat
1857
378
422
705
347
start
486
505
same
376
white
sa
martin
364
625
601
666
ds
621
5600
nhk
415
express
bit
9mm
these
50mm
gpu
b6
hip
zhou
nvidia
youtube
870
503
tm
8500
really
without
model
hey
mrna
park
wap
396
york
joe
great
review
200mg
chris
www
online
475
v1
such
unix
hard
40cm
50cm
nothing
zhao
ma
boy
url
432
network
aaaa
371
try
full
raid
bg
digital
mb
c1
ccc
5200
607
itunes
powerpoint
between
407
1842
1844
435
838
chemistry
team
party
die
place
care
383
cv
made
state
465
388
1620
sas
ji
soho
mp
581
years
1260
1680
hop
25mm
605
423
341
363
374
627
text
development
518
ug
change
713
1849
pda
418
un
line
958
416
von
373
core
dns
747
427
387
would
ipo
551
alt
1845
avi
2050
yeah
god
445
lesson
399
758
pu
computer
456
1847
brown
store
1821
515
589
applied
737
930
c3
1841
billboard
apec
mary
family
color
jsp
next
iq
645
506
hbv
a3
349
value
413
igg
411
426
usa
head
mike
usb2
things
5800
5v
o2
220v
392
cba
397
535
idc
analysis
25mg
ti
2h
890
der
ex
508
cnc
pentium
533
advanced
mpa
yl
685
old
call
alex
583
495
could
60000
something
hong
377
law
1846
1550
r2
1837
player
414
phone
hold
rgb
421
henry
2025
409
1815
mode
1843
504
letters
1780
428
389
t2
london
528
jpeg
steve
30min
527
h2
35000
eric
379
run
three
rf
left
455
open
556
bc
476
458
plus
1812
1839
b12
4d
america
est
dream
md
ya
global
436
15mm
2ml
sup3
ea
910
ben
1020
798
midi
features
lc
brian
akb48
1835
test
light
978
s1
1799
key
sim
1795
simple
energy
west
725
body
424
face
lin
805
1120
479
bill
433
believe
brt
pa
last
hu
sam
wei
adsl
602
mk
1832
523
604
jj
468
1560
ck
473
394
940
eq
498
used
sc
c2
screen
635
431
education
wwe
cl
5400
fpga
419
asia
534
552
100mm
pid
741
under
603
mbc
tc
xxx
didn
478
mn
p1
simon
ansi
438
hi
615
cell
study
586
393
should
xi
f2
games
0g
1760
mini
johnson
jones
yes
1825
cm3
1580
stay
675
another
6800
1736
ps2
517
2019
1640
rose
entertainment
448
und
496
software
970
5300
h1n1
488
da
20m
may
417
lady
galaxy
4100
1789
846
801
907
put
gone
606
t3
company
632
454
516
998
548
391
4700
ide
7200
together
street
626
731
30mg
mvp
1370
60cm
12cm
1828
628
everything
612
san
937
2gb
lu
angel
20ml
576
sony
790
press
hall
beautiful
711
453
pm
thing
442
alpha
leave
441
30mm
chapter
507
100000
526
directx
511
9cm
words
619
444
frank
eyes
483
522
541
water
499
non
bob
532
757
545
oo
alone
scott
744
river
zhu
nc
20g
gs
queen
1130
1645
4mg
1814
girls
544
e1
1210
1573
ipv6
1a
jackson
1836
les
4gb
1790
sars
epsilon
519
sod
bp
1810
year
sound
617
1125
598
466
emc
429
1838
ready
546
taylor
452
news
1180
568
2a
af
538
list
hot
1380
etc
1796
mo
levels
ht
daniel
pv
1831
emi
social
dreamweaver
kbs
565
613
990
jb
physics
lng
bs
457
enough
shy
521
596
ec
451
turn
available
4400
585
1010
hand
439
536
link
side
earth
mx
7m
482
472
1140
707
622
wcdma
513
must
492
462
40mg
948
cmax
1320
v2
542
email
493
sup
cnn
446
17000
30m
529
653
531
575
sr
united
pm2
mt
443
aac
806
vb
611
821
gre
gl
cisco
464
487
437
including
715
558
both
463
jim
608
m4
5100
war
money
481
1824
tnt
5s
louis
434
el
3900
records
view
chemical
1001
1mol
dance
668
dl
que
624
rt
1823
1805
005
1826
sgs
user
qc
island
language
space
saint
2n
pt
share
hotel
christian
557
2b
1801
447
1822
smt
hk
1834
825
50ml
general
nm
cae
484
wma
zn
single
599
c4
777
ocirc
1kg
684
skf
12mm
489
hla
ld
being
562
van
gm
688
655
special
edition
1s
jiang
131108
514
1792
ncaa
1833
jr
program
656
467
ing
901
755
509
kong
rp
audio
icp
happy
done
japan
ts
mit
p2
524
looking
miss
582
35mm
494
grand
those
joseph
ctrl
547
1040
686
lp
cod
sio2
txt
1770
1060
767
north
fcc
ester
718
story
edi
634
1360
1660
lh
1230
magic
549
4k
op
1662
651
616
title
sciences
25cm
s2
t4
648
100m
543
588
554
r1
3mg
amino
1776
609
772
ca2
vlan
469
500mg
road
636
metal
device
40mm
1730
1818
12g
537
pve
autodesk
477
v8
ray
gp
span
gc
size
716
ssl
crt
1670
925
pn
1127
702
658
services
support
1802
coming
experience
nbc
631
638
ace
0cm
ems
9001
yen
soc
ethyl
tf
studies
theory
1030
578
radio
471
704
because
1610
save
553
1809
785
lett
803
1827
academy
ed
629
sf
pr
hill
explorer
future
food
662
567
dcs
1086
1190
1829
bad
es
15m
order
spring
south
497
025
move
1630
abb
449
learn
l0
d2
5d
wav
cis
quality
odm
926
acta
root
smart
1661
cm2
photos
l2
via
sk
623
feeling
572
python
bmw
888
guo
epa
williams
813
bot
read
function
wilson
1723
enterprise
50hz
s26
fire
engineer
tony
1819
rh
pb
1720
1460
815
cbs
beta
1735
yan
1gb
x2
din
del
sms
649
pal
1369
far
maya
654
812
595
50m
close
eos
1420
6300
1816
wrong
break
573
765
file
friend
002
683
nx
please
1170
ro
6400
nick
acm
ati
point
766
fast
ata
d1
678
geforce
1710
yahoo
mysql
1793
gap
iso14000
uk
astm
h2o
n2
film
method
1804
so2
665
adam
uc
1806
1775
photo
474
image
200mm
sure
561
643
1813
proceedings
beyond
royal
else
eda
808
ddr
gif
l1
571
waiting
code
652
rss
learning
461
beijing
566
577
708
1520
689
kevin
human
661
539
875
1811
ssci
6600
587
735
3s
867
584
1522
904
case
1101
491
1080p
history
im
564
f4
salt
jason
rohs
12v
hydroxy
modem
font
cry
65536
health
1798
tonight
small
1570
1220
jane
against
597
751
459
bd
udp
process
1070
1807
children
8g
eb
62mm
22000
add
1440
rm
25g
ccedil
706
714
5l
709
1530
5h
559
jay
iga
020
fall
scsi
isdn
death
563
today
dvi
wait
1642
db
force
400mg
arts
ha
east
lost
effects
1628
album
harry
633
dark
public
2250
soul
826
659
exo
733
se
icu
4h
market
7800
ngc
1794
crazy
igm
scdma
6200
cb
835
699
bmp
809
1270
oled
1160
1621
g3
ova
cheng
614
thinkpad
fps
create
kim
1480
1540
rev
1v1
fans
1740
ag
1649
ps3
908
g1
703
v3
936
fl
c2c
environmental
paris
594
hear
jump
communications
talk
824
003
695
728
e2
nec
iptv
1797
kelly
500ml
721
rc
1808
ldl
1240
radeon
676
tang
plant
50g
professional
698
s36
lord
search
alan
pd
1403
1791
816
1636
3h
gsp
811
sky
1632
christmas
matter
574
effect
647
779
1803
657
sorry
awards
igbt
pwm
sos
976
592
10min
682
cs3
did
mater
579
1724
feng
low
mhz
836
722
726
bank
memory
rap
975
663
ips
2kg
787
642
677
series
nlp
raquo
stone
1672
1817
1646
827
ko
security
perfect
alexander
746
tt
check
804
15mg
sir
moon
doesn
591
inside
tim
672
641
1w
646
1783
1648
ev
1688
score
standard
723
fx
938
fu
1654
010
cpi
hz
1521
1067
727
ah
lv
916
639
han
1715
form
second
674
jin
pi
1788
rx
gao
sdk
zheng
745
href
593
ngo
multi
d3
637
1276
found
jis
5700
1234
80cm
aim
1778
act
569
xiao
717
786
return
5min
1582
etf
1590
action
1625
sarah
yourself
10kg
80000
775
818
stephen
gui
644
9500
v6
wlan
hs
2048
area
1616
andrew
8226
6mg
1567
1763
1470
pps
rca
pierre
687
null
manager
738
sdh
828
60g
300mg
jun
1685
favorite
making
playing
summer
754
692
664
945
h2s
bis
self
300mm
opengl
912
acute
996
magazine
edward
su
elisa
hdl
cyp3a4
foundation
alice
ddr3
915
923
tbs
andy
field
date
transactions
limited
during
1126
1057
fan
845
681
rw
mean
1566
become
economic
852
johnny
unique
tu
boys
1330
885
getting
cj
1072
nh
ne
band
cool
724
771
content
842
te
9600
drive
phenyl
1275
cao
menu
823
active
sb
appl
988
1622
1725
zero
1008
3kg
hit
mi
0kg
748
lite
enjoy
local
789
1506
seen
s3
1765
european
gold
1279
736
965
pl
button
1430
986
763
toefl
jimmy
dota
955
861
732
xbox
days
dan
673
833
4c
economics
23000
agent
html5
points
ryan
shi
reading
918
mine
adc
917
1592
1781
909
once
exchange
choose
current
symbian
ts16949
dave
machine
qos
1785
9m
cia
until
cs4
759
f3
903
24000
968
8mg
lewis
snh48
866
1722
ho
1110
1784
dt
shanghai
987
45000
1042
sl
saas
814
28000
a5
819
foxpro
shit
822
per
does
150mm
products
camp
select
capital
corporation
26000
954
dd
string
page
ba
671
782
dlp
729
outlook
wii
ue
1787
festival
communication
channel
gary
1755
1774
8600
copy
150mg
dragon
1056
c5
track
hdpe
liang
1800mhz
1619
995
21000
win
1394
1786
rain
table
itu
applications
mmorpg
s7
696
1069
lbs
0mg
car
wave
1552
1627
latest
step
886
761
783
esp
865
jazz
k1
fine
child
kind
anna
60mg
997
maria
nk
792
raw
late
soa
905
cai
ttl
delphi
prince
1340
synthesis
rmb
miller
patrick
933
running
50kg
1398
ast
752
location
dead
chateau
allows
forget
tg
921
5w
kiss
1690
691
arthur
index
csa
rmvb
msc
cas
known
h1
tj
j2ee
asian
841
1227
g20
cross
cos
ntilde
719
dnf
california
france
modern
pacific
769
1066
turbo
753
795
669
1764
868
union
1772
2150
1063
double
fight
858
math
bo
men
sea
6700
sem
697
882
note
qi
uml
902
1637
tp
1290
1085
776
dps
1687
hcl
al2o3
js
auto
1683
v5
culture
935
edge
voice
1007
bridge
855
008
battle
dp
ae
1090
895
1012
1162
bi
778
1575
pcm
15min
1598
secret
739
200m
6h
matt
card
mic
ecu
16mm
984
5km
dhcp
1753
living
gn
1643
framework
679
1782
four
1777
british
shell
santa
yuan
20ma
fly
927
qu
nds
qaq
bar
arp
1667
1773
693
main
1510
1002
2022
cdna
box
100km
004
bring
959
hpv
makes
cmv
tmd
1762
854
ghost
short
mcu
1768
cat
963
1757
1206
1207
puzzle
793
central
859
walter
60hz
anderson
1727
thought
864
molecular
856
dong
financial
1728
surface
g2
mf
solidworks
res
speed
1195
ascii
1404
784
jeff
1371
land
biology
1655
otc
sio
1310
1605
mems
1618
m16
complete
industrial
acs
1603
kids
tour
u2
allen
1756
743
davis
65279
7600
30ml
957
0l
734
p450
956
ir
500mm
casio
1038
roger
library
015
1652
within
hands
874
ntsc
whole
jq
post
sweet
wall
898
cs5
feo
9800
cms
1390
since
medical
1492
stand
justin
lake
i5
1729
bell
ruby
important
bout
images
lab
962
1759
rj
cache
nb
production
807
1771
doing
tnf
ws
guide
bim
events
1626
1016
performance
ra
zl
1568
1647
1615
shift
788
shen
1588
60mm
tuv
1673
electronic
mos
8kg
862
echo
1572
section
981
sg
1664
understand
hsk
delta
x86
eap
block
1578
er
xl
nox
ib
trying
ann
1635
apache
naoh
12345
1624
694
1601
983
773
1000m
someone
15kg
25m
847
1037
jerry
843
picture
919
e3
printf
3gs
marie
853
rj45
913
896
lose
unicode
100cm
1711
charlie
1689
room
beat
hplc
9300
110kv
nfc
764
iis
solo
ef
round
chang
1366
781
1585
982
socket
df
892
1536
831
ren
6kg
4900
object
forever
832
951
qr
1023
8800
4kg
1131
971
building
1021
939
crystal
smtp
cims
fang
1265
trans
pan
1745
1604
817
796
cosplay
1154
1189
749
794
1068
881
hc
hope
1410
couldn
1638
992
along
age
250mg
clear
aps
1631
1011
provides
1123
1701
36000
csf
n1
works
967
ptc
1111
1651
1726
sar
1666
qvga
hf
coreldraw
possible
1629
943
marc
luo
848
county
944
tb
dts
junior
vba
lot
direct
839
2350
774
fsh
wmv
1094
osi
1602
dior
1766
1623
1607
psa
spss
xy
1769
cells
1465
1577
gon
send
vision
thinking
imf
carl
32000
bay
928
is09001
20kg
imax
novel
qt
1684
au
author
mod
80mm
1748
849
1612
yet
929
6l
karl
6100
students
gmat
myself
kate
jpg
979
1752
829
2450
914
876
48h
mpv
1734
mis
1565
walk
941
1075
1235
natural
k2
977
4050
1669
p3
1004
fn
1555
vmware
chloride
942
steven
1078
966
1135
country
947
887
75mm
1278
1583
western
watch
1045
12m
museum
1215
document
marketing
952
usb3
906
physical
1668
agp
1488
pg
deep
1082
961
1526
yam
lofter
##s
##0
##a
##2
##1
##3
##e
##8
##5
##6
##4
##9
##7
##t
##o
##d
##i
##n
##m
##c
##l
##y
##r
##g
##p
##f
pixnet
cookies
tripadvisor
##er
##k
##h
##b
##x
##u
##w
##ing
ctrip
##on
##v
llc
##an
##z
blogthis
##le
##in
##mm
##00
ig
##ng
##us
##te
##ed
ncc
blog
##10
##al
##ic
##ia
##q
##ce
##en
##is
##ra
##es
##j
##cm
tw
##ne
##re
##tion
pony
##2017
##ch
##or
##na
cafe
pinterest
pixstyleme3c
##ta
##2016
##ll
##20
##ie
##ma
##17
##ion
##th
##st
##se
##et
##ck
##ly
web885
##ge
xd
##ry
##11
0fork
##12
##ter
##ar
##la
##os
##30
##el
##50
##ml
tue
posted
##at
##man
##15
ago
##it
##me
##de
##nt
##mb
##16
##ve
##da
##ps
##to
https
momo
##son
##ke
##80
ebd
apk
##88
##um
wiki
brake
mon
po
june
##ss
fb
##as
leonardo
safari
##60
wed
win7
kiehl
##co
##go
vfm
kanye
##90
##2015
##id
##ey
##sa
##ro
##am
##no
thu
fri
##sh
##ki
comments
##pe
##ine
uber
##mi
##ton
wordpress
##ment
win10
##ld
##li
gmail
##rs
##ri
##rd
##21
##io
##99
paypal
policy
##40
##ty
##18
##01
##ba
taiwan
##ga
privacy
agoda
##13
##ny
##24
##22
##by
##ur
##hz
##ang
cookie
netscape
##ka
##ad
nike
survey
##016
wikia
##32
##017
cbc
##tor
##kg
##rt
##14
campaign
##ct
##ts
##ns
##ao
##nd
##70
##ya
##il
##25
0020
897
##23
hotels
##ian
6606
##ers
##26
##day
##ay
##line
##be
talk2yam
yamservice
coco
##dy
##ies
##ha
instagram
##ot
##va
##mo
##land
ltxsw
##ation
##pa
##ol
tag
##ue
##31
oppo
##ca
##om
chrome
##ure
lol
##19
##bo
##100
##way
##ko
##do
##un
##ni
herme
##28
##up
##06
##ds
admin
##48
##015
##35
##ee
tpp
##ive
##cc
##ble
##ity
##ex
##ler
##ap
##book
##ice
##km
##mg
##ms
ebay
##29
ubuntu
##cy
##view
##lo
##oo
##02
step1
july
##net
##ls
##ii
##05
##33
step2
ios9
##box
##ley
samsung
pokemon
##ent
##les
s8
atom
##said
##55
##2014
##66
adidas
amazon
##ber
##ner
visa
##77
##der
connectivity
##hi
firefox
skip
##27
##ir
##61
##ai
##ver
cafe2017
##ron
##ster
##sk
##ft
longchamp
ssd
##ti
reply
##my
apr
##ker
source
##one
##2013
##ow
goods
##lin
##ip
##ics
##45
##03
##ff
##47
ganji
##nce
##per
faq
comment
##ock
##bs
##ah
##lv
##mp
##000
melody
17life
##au
##71
##04
##95
##age
tips
##68
##ting
##ung
wonderland
##ction
mar
article
##db
##07
##ore
##op
##78
##38
##ong
##73
##08
##ica
##36
##wa
##64
homemesh
##85
##tv
##di
macbook
##ier
##si
##75
##ok
goris
lock
##ut
carol
##vi
##ac
anti
jan
tags
##98
##51
august
##86
##fs
##sion
jordan
##tt
##lt
##42
##bc
vivi
##rry
##ted
##rn
usd
##t00
##58
##09
##34
goo
##ui
##ary
item
##pm
##41
##za
##2012
blogabstract
##ger
##62
##44
gr2
asus
cindy
##hd
esc
##od
booking
##53
fed
##81
##ina
chan
distribution
steam
pk10
##ix
##65
##91
dec
##ana
icecat
00z
##46
##ji
##ard
oct
##ain
jp
##ze
##bi
cio
##56
h5
##39
##port
curve
##nm
##dia
utc
12345678910
##52
chanel
##and
##im
##63
vera
vivo
##ei
2756
##69
msci
##po
##89
##bit
##out
##zz
##97
##67
opec
##96
##tes
##ast
##ling
##ory
##ical
kitty
##43
step3
##cn
win8
iphone7
beauty
##87
dollars
##ys
##oc
pay
##2011
##lly
##ks
download
sep
##board
##37
##lan
winrar
##que
##ua
##com
ettoday
##54
##ren
##via
##72
##79
##tch
##49
##ial
##nn
step4
2765
gov
##xx
mandy
##ser
copyright
fashion
##ist
##art
##lm
##ek
##ning
##if
##ite
iot
##84
##2010
##ku
october
##ux
trump
##hs
##ide
##ins
april
##ight
##83
protected
##fe
##ho
ofo
gomaji
march
##lla
##pp
##ec
6s
720p
##rm
##ham
##92
fandom
##ell
info
##82
sina
4066
##able
##ctor
rights
jul
##76
mall
##59
donald
sodu
##light
reserved
htm
##han
##57
##ise
##tions
##shi
doc
055
##ram
shopping
aug
##pi
##well
wam
##hu
##gb
##93
mix
##ef
##uan
bwl
##plus
##res
##ess
tea
hktvmall
##ate
##ese
feb
inn
nov
##ci
pass
##bet
##nk
coffee
airbnb
##ute
woshipm
skype
##fc
##www
##94
##ght
##gs
##ile
##wood
##uo
icon
##em
says
##king
##tive
blogger
##74
##ox
##zy
##red
##ium
##lf
nokia
claire
##ding
november
lohas
##500
##tic
##cs
##che
##ire
##gy
##ult
january
ptt
##fa
##mer
pchome
udn
##time
##tte
garden
eleven
309b
bat
##123
##tra
kindle
##ern
xperia
ces
travel
##ous
##int
edu
cho
##car
##our
##ant
rends
##jo
mastercard
##2000
kb
##min
##ino
##ris
##ud
##set
##her
##ou
taipei
##fi
##ill
aphojoy
december
meiki
##ick
tweet
##av
iphone6
##dd
views
##mark
##ash
##ome
koreanmall
##ak
q2
##200
mlb
##lle
##watch
##und
##tal
##less
4399
##rl
update
shop
##mhz
##house
##key
##001
##hy
##web
##2009
##gg
##wan
##val
2021
##ons
doi
trivago
overdope
##ance
573032185
wx17house
##so
audi
##he
##rp
##ake
beach
cfa
ps4
##800
##link
##hp
ferragamo
##eng
##style
##gi
i7
##ray
##max
##pc
september
##ace
vps
february
pantos
wp
lisa
jquery
offer
##berg
##news
fks
##all
##rus
##888
##works
blogtitle
loftpermalink
ling
##ja
outlet
##ea
##top
##ness
salvatore
##lu
swift
##ul
week
##ean
##300
##gle
##back
powered
##tan
##nes
canon
##zi
##las
##oe
##sd
##bot
##world
##zo
top100
pmi
##vr
ball
vogue
ofweek
##list
##ort
##lon
##tc
##of
##bus
##gen
nas
##lie
##ria
##coin
##bt
nata
vive
cup
##ook
##sy
msg
3ce
##word
ebooks
r8
nice
months
rewards
##ther
0800
##xi
##sc
gg
blogfp
daily
##bb
##tar
##ky
anthony
##yo
##ara
##aa
##rc
##tz
##ston
gear
##eo
##ade
##win
##ura
##den
##ita
##sm
png
rakuten
whatsapp
##use
pad
gucci
##ode
##fo
chicago
##hone
io
sogo
be2
##ology
cloud
##con
##ford
##joy
##kb
##rade
##ach
docker
##ful
##ase
ford
##star
edited
##are
##mc
siri
##ella
bloomberg
##read
pizza
##ison
##vm
node
18k
##play
##cer
##yu
##ings
asr
##lia
step5
##cd
pixstyleme
##600
##tus
tokyo
##rial
##life
##ae
tcs
##rk
##wang
##sp
##ving
premium
netflix
##lton
##ple
##cal
021
##sen
##ville
nexus
##ius
##mah
tila
##tin
resort
##ws
p10
report
##360
##ru
bus
vans
##est
links
rebecca
##dm
azure
##365
##mon
moto
##eam
blogspot
##ments
##ik
##kw
##bin
##ata
##vin
##tu
##ula
station
##ature
files
zara
hdr
top10
s6
marriott
avira
tab
##ran
##home
oculus
##ral
rosie
##force
##ini
ice
##bert
##nder
##mber
plurk
##sis
00kg
##ence
##nc
##name
log
ikea
malaysia
##ncy
##nie
##ye
##oid
##chi
xuehai
##1000
##orm
##rf
##ware
##pro
##era
##ub
##2008
8891
scp
##zen
qvod
jcb
##hr
weibo
##row
##ish
github
mate
##lot
##ane
##tina
ed2k
##vel
##900
final
ns
bytes
##ene
##cker
##2007
##px
topapp
helpapp
14k
g4g
ldquo
##fork
##gan
##zon
##qq
##google
##ism
##zer
toyota
category
##labels
restaurant
##md
posts
##ico
angelababy
123456
sports
candy
##new
##here
swissinfo
dram
##ual
##vice
##wer
sport
q1
ios10
##mll
wan
##uk
x3
0t
##ming
e5
##3d
h7n9
worldcat
##vo
##led
##580
##ax
##ert
polo
##lr
##hing
##chat
##ule
hotmail
##pad
bbq
##ring
wali
2k
costco
switch
##city
philips
##mann
panasonic
##cl
##vd
##ping
##rge
##lk
css3
##ney
##ular
##400
##tter
lz
##tm
##yan
##let
coach
##pt
a8
follow
##berry
##ew
##wn
##og
##code
##rid
villa
git
r11
##cket
error
##anonymoussaid
##ag
##ame
##gc
qa
##lis
##gin
vmalife
##cher
wedding
##tis
demo
bye
##rant
orz
acer
##ats
##ven
macd
yougou
##dn
##ano
##urt
##rent
continue
script
##wen
##ect
paper
##chel
##cat
x5
fox
##blog
loading
##yn
##tp
kuso
799
vdc
forest
prime
ultra
##rmb
square
##field
##reen
##ors
##ju
##air
##map
cdn
##wo
m8
##get
opera
##base
##ood
vsa
##aw
##ail
count
##een
##gp
vsc
tree
##eg
##ose
##ories
##shop
alphago
v4
fluke62max
zip
##sta
bas
##yer
hadoop
##ube
##wi
0755
hola
##low
centre
##fer
##750
##media
##san
##bank
q3
##nge
##mail
##lp
client
event
vincent
##nse
sui
adchoice
##stry
##zone
ga
apps
##ab
##rner
kymco
##care
##pu
##yi
minkoff
annie
collection
kpi
playstation
bh
##bar
armani
##xy
iherb
##ery
##share
##ob
volvo
##ball
##hk
##cp
##rie
##ona
##sl
gtx
rdquo
jayz
##lex
##rum
namespace
##ale
##atic
##erson
##ql
##ves
##type
enter
##168
##mix
##bian
a9
ky
##lc
movie
##hc
tower
##ration
##mit
##nch
ua
tel
prefix
##o2
##point
ott
##http
##ury
baidu
##ink
member
##logy
bigbang
nownews
##js
##shot
##tb
eba
##tics
##lus
spark
##ama
##ions
##lls
##down
##ress
burberry
day2
##kv
related
edit
##ark
cx
32gb
g9
##ans
##tty
s5
##bee
thread
xr
buy
spotify
##ari
##verse
7headlines
nego
sunny
dom
positioning
fit
##tton
alexa
##ties
##llow
amy
##du
##rth
##lar
2345
##des
sidebar
site
##cky
##kit
##ime
##009
season
##fun
gogoro
a7
lily
twd600
##vis
##cture
friday
yi
##tta
##tel
##lock
economy
tinker
8gb
##app
oops
##right
edm
##cent
supreme
##its
##asia
dropbox
##tti
books
##tle
##ller
##ken
##more
##boy
sex
##dom
##ider
##unch
##put
##gh
ka
amoled
div
##tr
##n1
port
howard
##tags
ken
##nus
adsense
buff
thunder
##town
##ique
##body
pin
##erry
tee
##the
##013
udnbkk
16gb
##mic
miui
##tro
##alk
##nity
s4
##oa
docomo
##tf
##ack
fc2
##ded
##sco
##014
##rite
linkedin
##ada
##now
##ndy
ucbug
sputniknews
legalminer
##ika
##xp
##bu
q10
##rman
cheese
ming
maker
##gm
nikon
##fig
ppi
jchere
ted
fgo
tech
##tto
##gl
##len
hair
img
##pper
##a1
acca
##ition
##ference
suite
##ig
##mond
##cation
##pr
101vip
##999
64gb
airport
##over
##ith
##su
town
piece
##llo
no1
##qi
focus
reader
##admin
##ora
false
##log
##ces
##ume
motel
##oper
flickr
netcomponents
##af
pose
##ound
##cg
##site
##iko
con
##ath
##hip
##rey
cream
##cks
012
##dp
facebooktwitterpinterestgoogle
sso
shtml
swiss
##mw
lumia
xdd
tiffany
insee
russell
dell
##ations
camera
##vs
##flow
##late
classic
##nter
##ever
##lab
##nger
qe
##cing
editor
##nap
sunday
##ens
##700
##bra
acg
sofascore
mkv
##ign
jonathan
build
labels
##oto
tesla
moba
gohappy
ajax
##test
##urs
wps
fedora
##ich
mozilla
##480
##dr
urn
##lina
grace
##die
##try
##ader
elle
##chen
price
##ten
uhz
##ough
##hen
states
push
session
balance
wow
##cus
##py
##ward
##ep
34e
wong
prada
##cle
##ree
q4
##ctive
##ool
##ira
##163
rq
buffet
e6
##ez
##card
##cha
day3
eye
##end
adi
tvbs
##ala
nova
##tail
##ries
##ved
base
##ways
hero
hgih
profile
fish
mu
ssh
##wd
click
cake
##ond
pre
##tom
kic
pixel
##ov
##fl
product
6a
##pd
dear
##gate
yumi
##sky
bin
##ture
##ape
isis
nand
##101
##load
##ream
a6
##post
##we
zenfone
##ike
gd
forum
jessica
##ould
##ious
lohasthree
##gar
##ggle
##ric
##own
eclipse
##side
061
##other
##tech
##ator
engine
##ged
plaza
##fit
westbrook
reuters
##ily
contextlink
##hn
##cil
##cel
cambridge
##ize
##aid
##data
frm
##head
butler
##sun
##mar
puma
pmid
kitchen
##lic
day1
##text
##page
##rris
pm1
##ket
trackback
##hai
display
##hl
idea
##sent
airmail
##ug
##men
028
##lution
schemas
asics
wikipedia
##tional
##vy
##dget
##ein
contact
pepper
##uel
##ument
##hang
q5
##sue
##ndi
swatch
##cept
popular
##ste
##tag
trc
##west
##live
honda
ping
messenger
##rap
v9
unity
appqq
leo
##tone
##ass
uniqlo
##010
moneydj
##tical
12306
##m2
coc
miacare
##mn
tmt
##core
vim
kk
##may
target
##2c
##ope
omega
pinkoi
##rain
##ement
p9
rd
##tier
##vic
zone
isofix
cpa
kimi
##lay
lulu
##uck
050
weeks
##hop
##ear
eia
##fly
korea
boost
##ship
eur
valley
##iel
##ude
rn
##ena
feed
5757
qqmei
##thing
aws
pink
##ters
##kin
board
##vertisement
wine
##ien
##dge
##tant
##twitter
##3c
cool1
##012
##150
##fu
##iner
googlemsn
pixnetfacebookyahoo
x7
##uce
sao
##ev
##file
9678
xddd
shirt
##rio
##hat
givenchy
bang
##lio
monday
##abc
ubuntuforumwikilinuxpastechat
##vc
##rity
7866
##ost
imsean
tiger
##fet
dji
##come
##beth
##aft
##don
3p
emma
##khz
x6
##face
pptv
x4
##mate
sophie
##jing
fifa
##mand
sale
inwedding
##gn
##mmy
##pmlast
nana
##wu
note7
##340
##bel
window
##dio
##ht
##ivity
domain
neo
##isa
##lter
5k
f5
##cts
ft
zol
##act
mwc
nbapop
eds
##room
previous
tomtom
##ets
5t
chi
##hg
fairmont
gay
1b
##raph
##ils
i3
avenue
##host
##bon
##tsu
message
navigation
fintech
h6
##ject
##vas
##firm
credit
##wf
xxxx
##nor
##space
huawei
plan
json
sbl
##dc
wish
##120
##sol
windows7
washington
##nsis
lo
##sio
##ym
##bor
planet
##wt
gpa
##tw
##oka
connect
##rss
##work
##atus
chicken
##times
fa
##ather
##cord
009
##eep
hitachi
##pan
disney
##press
wind
frigidaire
##tl
hsu
##ull
expedia
archives
##wei
cut
ins
6gb
brand
cf1
##rip
##nis
128gb
3t
##oon
quick
15058
wing
##bug
##cms
##dar
##oh
zoom
trip
##nba
rcep
aspx
080
gnu
##count
##url
##ging
8591
am09
shadow
##cia
emily
##tation
host
ff
techorz
##mini
##mporary
##ering
##next
cma
##mbps
##gas
##ift
##dot
amana
##ros
##eet
##ible
##aka
##lor
maggie
##011
##iu
##gt
1tb
articles
##burg
##iki
database
fantasy
##rex
##cam
dlc
dean
##you
path
gaming
victoria
maps
##lee
##itor
overchicstoretvhome
##xt
##nan
x9
install
##ann
##ph
##rcle
##nic
##nar
metro
chocolate
##rian
##table
skin
##sn
mountain
##0mm
inparadise
7x24
##jia
eeworld
creative
g5
parker
ecfa
village
sylvia
hbl
##ques
##onsored
##x2
##v4
##tein
ie6
##stack
ver
##ads
##baby
bbe
##110
##lone
##uid
ads
022
gundam
006
scrum
match
##ave
##470
##oy
##talk
glass
lamigo
##eme
##a5
wade
kde
##lace
ocean
tvg
##covery
##r3
##ners
##rea
##aine
cover
##ision
##sia
##bow
msi
##love
soft
z2
##pl
mobil
##uy
nginx
##oi
##rr
6221
##mple
##sson
##nts
91tv
comhd
crv3000
##uard
gallery
##bia
rate
spf
redis
traction
icloud
011
jose
##tory
sohu
899
kicstart2
##hia
##sit
##walk
##xure
500g
##pact
xa
carlo
##250
##walker
##can
cto
gigi
pen
##hoo
ob
##yy
13913459
##iti
mango
##bbs
sense
oxford
walker
jennifer
##ola
course
##bre
##pus
##rder
lucky
075
ivy
##nia
sotheby
##ugh
joy
##orage
##ush
##bat
##dt
r9
##2d
##gio
wear
##lax
##moon
seven
lonzo
8k
evolution
##kk
kd
arduino
##lux
arpg
##rdon
cook
##x5
five
##als
##ida
sign
##nda
##posted
fresh
##mine
##skip
##form
##ssion
##tee
dyson
stage
##jie
##night
epson
pack
##ppy
wd
##eh
##rence
##lvin
golden
discovery
##trix
##n2
loft
##uch
##dra
##sse
1mdb
welcome
##urn
gaga
##lmer
teddy
##160
##f2016
##sha
rar
holiday
074
##vg
##nos
##rail
gartner
gi
6p
##dium
kit
b3
eco
sean
##stone
nu
##np
f16
write
029
m5
##ias
##dk
fsm
52kb
##xxx
##cake
lim
ru
1v
##ification
published
angela
16g
analytics
##nel
gmt
##icon
##bby
ios11
waze
9985
##ust
##007
delete
52sykb
wwdc
027
##fw
1389
##xon
brandt
##ses
##dragon
vetements
anne
monte
official
##ere
##nne
##oud
etnews
##a2
##graphy
##rtex
##gma
mount
archive
morning
tan
ddos
e7
day4
factory
bruce
##ito
guest
##lling
n3
mega
women
dac
church
##jun
singapore
##facebook
6991
starbucks
##tos
##stin
##shine
zen
##mu
tina
request
##gence
q7
##zzi
diary
##tore
##ead
cst
##osa
canada
va
##jiang
##lam
##nix
##sday
g6
##master
bing
##zl
nb40
thai
ln284ct
##itz
##2f
bonnie
##food
##lent
originals
##stro
##lts
##bscribe
ntd
yesstyle
hmv
##tment
d5
##pn
topios9
lifestyle
virtual
##ague
xz
##deo
muji
024
unt
##nnis
faq1
##ette
curry
##pop
release
##cast
073
##ews
5c
##stle
ios7
##ima
dog
lenovo
##r4
013
vornado
##desk
##ald
9595
##van
oil
common
##jy
##lines
g7
twice
ella
nano
belle
##mes
##self
##note
benz
##ova
##wing
kai
##hua
##rect
rainer
##unge
##0m
guestname
##uma
##kins
##zu
tokichoi
##price
##med
##mus
rmk
address
vm
openload
##group
##hin
##iginal
amg
urban
##oz
jobs
##public
##sch
##dden
##bell
hostel
##drive
##rmin
boot
##370
##fx
##nome
##ctionary
##oman
##lish
##cr
##hm
##how
francis
c919
b5
evernote
##uc
##3000
coupe
##urg
##cca
##uality
019
##ett
##ani
##tax
##rma
leonnhurt
##jin
ict
bird
notes
##dical
##lli
result
iu
ee
smap
gopro
##last
yin
pure
32g
##dan
##rame
mama
##oot
bean
##hur
2l
bella
sync
xuite
##ground
discuz
##getrelax
##ince
##bay
##5s
apt
##pass
jing
##rix
rich
niusnews
##ello
bag
##eting
##mobile
##ience
details
universal
silver
dit
private
ddd
u11
kanshu
##ified
fung
##nny
dx
##520
tai
023
##fr
##lean
##pin
##rin
ly
rick
##bility
banner
##baru
##gion
vdf
qualcomm
bear
oldid
ian
jo
##tors
population
##ernel
##mv
##bike
ww
##ager
exhibition
##del
##pods
fpx
structure
##free
##tings
kl
##rley
##copyright
##mma
orange
yoga
4l
canmake
honey
##anda
nikkie
dhl
publishing
##mall
##gnet
e88
##dog
fishbase
###
##[
．
―
`
－
–
％
﹣
﹏
⑴
﹐
⑵
｜
１
＋
＿
﹑
⑶
＂
∠
３
２
╭
╮
︰
］
［
５
＊
⑷
４
＝
⑨
∶
６
＞
７
＆
８
⑸
＼
⑩
￣
＃
﹍
╯
９
﹕
﹙
﹚
╰
﹝
ヽ
⒈
﹞
﹒
⒉
⑹
０
＜
⒊
ａ
‐
﹔
⑺
﹪
⒋
＾
㈠
⑻
ｂ
㈡
⑾
↖
﹡
⑼
ｃ
￡
⒌
﹖
⑿
ⅹ
ｏ
▍
∵
〓
ˉ
⑽
㈣
︱
ⅷ
㈢
ˇ
┊
ㄍ
﹥
｛
｝
▌
﹗
ⅸ
､
ｄ
⒍
⒀
･
ㄟ
𠀤
⒁
⒄
⒎
ｔ
ｅ
ˊ
﹤
ｘ
﹌
▓
ｑ
＇
𫖯
⒂
ㄒ
ㄉ
∣
ｓ
┯
⒐
﹉
⒏
ｎ
ｉ
▔
╥
︶
❤
㊣
⒃
‑
ｍ
ｖ
ㄏ
✓
ｈ
㈤
▎
ㄖ
┐
┑
◢
▋
￠
∽
㎜
⒆
ｐ
▂
﹁
｡
℡
⒅
ｆ
ｒ
ｌ
ㄋ
◤
｀
┌
∷
℉
＄
↘
⒑
ｊ
﹋
﹂
ㄇ
✔
ｇ
︵
ㄥ
𫔄
ｋ
﹢
﹛
𪢮
┍
▏
ｗ
╳
⌒
⒒
゜
ｕ
﹃
𫓰
┇
ㄊ
𫚥
┆
﹎
ⅺ
﹀
ㄈ
☞
゛
⒓
﹄
ⅻ
䜣
┴
︴
𪟝
㈥
⒛
∮
ㄎ
﹜
ㄔ
ㄗ
┘
︾
➤
ㄦ
﹟
ㄌ
∏
﹦
ﷺ
︽
︿
㈨
𫖮
ㄐ
↩
⒔
ㄓ
㈦
┨
ㄛ
⒖
ㄆ
⒙
◥
ｙ
﹨
⒘
⼀
┅
⒚
㎝
┋
⒗
┦
䃅
𩽾
⒕
ꄲ
𩾌
𫓹
◣
ｚ
☑
´
⒇
ㄣ
𨱒
≌
┮
ㄤ
┤
㳕
𫚉
▷
↙
㎏
𪲎
ㄑ
✦
㈧
▉
▊
𪲛
䶮
ㄝ
┪
﨑
‵
𫏋
ㄕ
∝
ㄅ
𪩘
﹠
ㄩ
▇
𫍽
￼
✈
𫓺
￭
┕
⼈
▕
ຫ
╃
ມ
﹊
𫚔
✎
┲
╬
┖
⼤
￢
┒
⊿
𣸣
┝
┥
▄
𣱝
┞
╁
∟
𠮶
𪸩
ⓑ
𣐤
❖
𪫺
┰
┠
⑪
𫚭
︳
䌷
┈
㭴
ⓒ
𫐓
︹
✪
≦
▅
┎
︺
▁
㳡
❶
┟
𫄨
︸
ㄠ
✿
╂
┱
㈩
¸
ㄜ
㑩
❷
𣨼
𦶟
ｽ
≧
㓥
◄
┙
𨱍
ヮ
⑫
➢
ㄡ
┚
╋
𫊸
︻
㧑
┢
𤞤
➡
┄
⽤
┼
┩
◀
𫊻
䴙
⽣
𡺃
𦼖
〡
┿
𪨶
ꁹ
︼
☀
㗎
㖞
𫘧
⑬
♫
𨱄
▸
𫄸
𦈋
ꂃ
䓬
𪲔
⾏
ㄙ
𨰾
☛
┧
𫛭
☎
╀
❸
𣃁
❀
㖊
♬
𪾢
䴘
ㄢ
𠡠
㹴
㆒
𦈡
𫇭
╠
┭
𫓧
⑭
ﾉ
⭐
═
𤩽
𫄥
ゎ
◈
𫉁
𫛳
𦛨
⾼
䇲
☺
๑
╄
ㄘ
ㄞ
⽅
㭎
㚻
⽂
䴕
𫖳
𫛩
✕
𪽈
𫛶
⑮
⁃
䝙
⼒
➜
㶉
𪭢
⁞
◾
䜩
◉
╲
𫚒
𫚕
〣
╣
䲢
▫
⼦
ⓓ
ƙ
䓖
⼯
𫍯
𫐌
┉
𨱇
䯄
⾃
⇐
䓨
┡
𠰷
⼼
◕
𫄧
⑯
𪲮
㏄
䲗
﹫
⽽
𪣻
ﾟ
╙
╊
✍
𨻰
⾯
𫗧
☼
❹
℅
𥆧
‒
ℏ
𪾔
╅
𪴙
︷
𪻺
𫐐
✧
𢬍
┽
ⓔ
𣏢
𤾀
𫐒
𨱔
䴓
䓕
𫐄
⼩
┻
⬇
⽇
𡒄
❄
︙
⑰
𥚃
䌹
☟
𫘤
⼊
╔
𫗴
𫔍
✽
▃
𫐑
𫗞
𫓴
𫗦
㕮
⌘
☜
╉
㷧
𣲗
𩾃
▆
䶄
㴋
𢙐
▵
ⓕ
⾦
⚠
╚
⽬
㏒
ϵ
♁
䳍
˜
㔉
◁
┷
ⓞ
㵲
╗
⑱
𤣥
𫛞
𫘝
𩠌
♛
▣
䲠
➲
┾
䲟
❗
𫐉
㳇
ꄴ
ⓖ
𫛸
䳭
♨
✭
𫛛
𣘴
𢽾
𫖃
㎎
𧏖
㡎
✖
䅉
╪
𦰏
𫔎
⑲
𣲘
𫄠
￤
䦅
❺
⼿
⾳
┸
➔
𠛬
⛳
☝
➠
✤
░
𫔂
𫄬
♚
𠯟
⟵
𫓩
✘
𫔔
▻
𣗋
㮾
𫓶
𫗪
◘
𫛚
𫄙
䅟
㊙
ⓗ
𫘨
𫘜
𨱎
𫉄
➟
㐽
➞
┵
⌋
𠇹
𪨗
┺
㧏
╈
𪶄
𥮾
䂵
ⓘ
䏝
⼭
⑳
𫔅
𪳍
䍁
𫄟
𫄛
𨱅
⽔
ɿ
╛
➙
✌
㐷
⽹
⽴
𠋫
𪿫
𤰞
䴖
ˎ
𫘦
㎥
☻
𥬠
╇
╆
㺢
╤
𩾇
❈
㹢
𫗵
㑹
⽕
✰
╟
𫐖
㻋
⼠
➥
☯
㧟
✩
⚡
╝
㶲
❥
⾥
〢
✚
⽐
✉
𨱏
❂
𩷶
┹
㼈
⽚
❉
♤
☂
𪺭
⸢
𫍙
┶
𤨒
㆗
ⓙ
⌈
⚫
⸥
𫕥
䌸
‾
ᠤ
❯
𫍢
▒
ｰ
㬎
䉤
⼆
𦈌
𫚢
ⓜ
𫇴
➣
𫏐
𪡏
ｲ
⾊
⭕
䲡
䗖
䄉
ⓚ
𫚪
❁
▾
╩
ⓛ
‣
▴
〤
ⓝ
𥳑
﹩
⾄
𥩟
䱵
⾸
ﾊ
䓪
𪻐
ⓦ
䱛
䴔
䃟
❻
⼗
♢
◼
⽆
◑
᠂
𪢠
𫚈
⽉
𣐕
㫃
𣎴
㆖
𦈏
ⓡ
𥐟
𫔶
䱻
㥪
❏
ⓟ
𫆏
҉
𨱑
䱗
⚈
䁐
➊
➁
➀
╞
𠺗
𫂆
𠱞
𫜁
𫍲
𡃁
㛤
╨
𫐘
〸
➽
𪪞
⦁
𣴓
⾮
⬆
❞
⾝
╦
⇢
䴉
ฅ
︒
〥
ȵ
𫎬
𡒉
ﾞ
☰
╢
⻄
𫔰
𪉈
𩙥
𨱓
⼴
𪨊
𪎊
╜
╒
𦈉
䄂
☐
⋆
҈
𫖒
𫚙
ˑ
ʨ
㠯
╧
ⓠ
☪
➋
╡
𫘥
𫚋
𣗊
◐
⇨
𫌨
𨱌
✏
☘
╕
⋮
𥓓
﹅
☽
╘
◍
▧
╓
﹘
𠝹
⽀
㩲
⾹
∎
𫄷
㆘
𠀧
㶞
㏑
䝞
⿰
❮
䂬
㘭
ﾄ
ⓢ
𫐕
✗
▐
╫
⌊
𪱥
ꎬ
⦿
ﾍ
ཏ
฿
𫜬
㽏
𠋆
𫈵
𢙏
➝
㱩
𩙪
㸃
╴
ⓥ
℗
𢄂
㑇
⚾
𪡋
☁
ˆ
𫛪
䴥
㨃
╖
𥐻
𠙶
㙡
⾔
𪡞
𦈐
▨
⊳
❣
ˍ
𫛤
𫍚
𧮪
❼
✱
ⓣ
𫎆
𥬞
𠐤
䠷
𩭹
☮
𠊎
➩
⊢
㦃
⿱
✮
‱
𡥧
❃
㬢
⽰
ꢀ
𫍻
❽
㷫
❒
❇
𫛣
➂
𫅗
𠒇
ⓤ
㘵
𫚐
⼝
✡
𫚖
𪾦
☓
☄
𨸏
᠃
𫜰
𫈟
𪾸
𢙓
⻓
♔
𫐈
㻅
ཡ
𫌀
𪭾
𢫬
㮣
㮈
⺠
𫘞
⾰
⇋
↵
𫄫
𣚚
㊗
ཨ
𥙿
𡨥
☚
⼥
☕
𪩸
㕵
⽩
𫈉
𦈎
𡊁
ﾆ
䕶
⻑
𫄳
⾜
㐌
❭
❬
✹
˘
▦
𫁡
㚟
⓪
𫓽
𪨷
✄
ｨ
㉑
✯
⚑
𪵑
䜌
㰘
𫑡
𣒌
䆁
㩒
⾛
𝑂
䅁
㆟
ᠡ
𫓯
㚢
⼏
❦
❝
☏
︖
䃼
➺
➨
𫘪
𤊨
ꁕ
〦
⚽
⇆
〨
⽯
␣
𪺷
ㄫ
⽓
𫔇
𫄶
︐
㙾
㇐
➌
▩
ᴗ
𣋉
㍿
♋
ⓧ
𫘬
ﾐ
䱽
䁖
㨰
❑
𫍣
䵍
䛐
㉒
⺌
☷
ⓩ
𫋇
⾺
⟲
𫖇
𧒽
㫻
⼉
⬛
⁎
𫐎
𨮁
㘛
㉔
⼜
☃
▀
䗛
㕭
⻘
ҵ
ﾘ
ɳ
㴓
㉓
⾒
⽼
✟
♩
▹
ⓨ
ℙ
༼
𫍰
㩦
⽶
⻆
พ
𠱸
䑕
㳠
⾓
𫍪
䖵
⿊
◙
↳
𡤕
⽛
♻
♞
𫓪
𦝼
ㅍ
⾨
𪪼
𥫣
㵎
㡳
㝹
⽌
➃
ᐛ
ɗ
䡾
㸅
۞
𪷽
𠃊
䨇
䦆
㦕
㊝
☲
𤅷
𡰪
䰟
㊤
☹
◠
ᠢ
𣷷
䍀
ㅋ
〧
⽗
☢
𨅬
㒳
➷
ʥ
䊨
㕛
♉
𫚌
𪽪
𪧘
𤶊
𣺼
𣎑
䇿
㆓
❊
𪸕
䞐
䔄
㐳
⼰
༎
ʈ
ǀ
𪮖
ꅀ
㥠
⾎
⠀
♈
☾
ɜ
𫚧
𨋢
㿠
㕶
㐅
⽪
⁉
ɽ
𫗩
𪮶
㲪
⺮
☱
‽
˃
𨱈
𦨭
㶽
㲩
✺
☵
𩨄
𤈷
𠺘
𠵱
䗉
䇂
㼎
㻗
㬌
㝢
᠈
𫘣
𫘛
ﻩ
㆞
ㅎ
〰
⺁
➪
☭
↬
ɚ
𠂹
䢅
䡼
䓤
㗊
♟
☩
⌥
𫐆
𨱃
𡈼
㼅
㟥
㉕
ㄭ
⚪
༽
˝
𪧀
𤇹
䘵
㐃
˴
𫗠
𣎵
㙉
ㅗ
ㅏ
〩
❐
☴
℠
ɖ
𫗥
𫋻
𪹚
﷼
䕒
₲
𫗮
𫔯
𫍜
𫄰
𨥙
𤞃
ꁇ
⼟
✴
♊
☸
⁍
𫓱
ꎮ
䵋
㶟
㴶
㬪
㞎
⾁
⼲
ℵ
𫍥
𫄴
𪥰
𡎚
𠮷
✫
⚜
𫍬
𫌭
𪞝
𡿨
︑
㨗
㚖
㐆
ㅊ
⼑
❾
✂
♎
♌
☳
⊇
⇦
⁽
ཞ
𫓦
𡳞
ﾚ
⾷
♒
ཉ
༺
ŧ
𫚞
𥄫
𣏌
𣈱
䡽
㧰
⾞
➍
▯
‸
۩
ѵ
ʅ
ɵ
𩙫
䡶
✲
✬
⎦
ʹ
𫖔
𪉑
䡻
䗪
㖭
㓜
⎡
ถ
𫑘
𥑮
𤊟
䚟
䄄
㷩
㶶
㘰
ㅌ
⻊
☍
◻
⎪
𦦙
𣳫
䳘
㦤
㕑
㆔
❨
≖
ཧ
ɥ
[unused0]
[unused1]
[unused2]
[unused3]
[unused4]
[unused5]
[unused6]
[unused7]
[unused8]
[unused9]
[unused10]
[unused11]
[unused12]
[unused13]
[unused14]
[unused15]
[unused16]
[unused17]
[unused18]
[unused19]
[unused20]
th
wh
##idu
##dow
dn
wor
##igh
sy
##ifi
sin
ser
bu
uf
tr
##oss
str
jav
##rom
ke
fbq
ufb
##qu
##stem
gr
cont
gh
sw
##very
fr
##iz
exc
##for
gu
ye
blo
opp
##gr
dh
##ind
##pg
nv
serv
ty
aw
vo
##iv
len
##idao
intern
##iss
zhidao
wo
##oso
mus
stud
hel
col
##ams
##wor
fo
supp
print
inde
##otos
comp
aut
##ank
par
##ife
mat
sch
dis
##unt
wr
wa
loc
micr
##iao
sn
fil
num
##irl
def
##roid
##ovo
nvid
##osoft
mdash
ghz
eng
char
bet
val
itun
##ents
sel
fd
##ild
sub
##arch
##itt
kt
ret
pub
lm
spe
comm
progr
wat
##ars
hy
acc
##ota
##ody
##ower
mov
ik
bai
peop
rel
ku
##old
bf
oline
1.
happ
ax
quest
##ript
dri
tie
wl
wm
contro
question
vis
tra
##vers
void
cur
tieba
incl
fir
tx
ste
bre
inst
det
fs
##tml
che
##eth
inter
jd
nor
tem
oth
son
qb
##ouch
cor
cct
conf
stat
vx
##zd
xm
##ange
ln
iknow
goog
##oll
bel
src
##ror
jn
tn
aft
lr
pic
med
##ord
reco
sol
##ib
hcg
dy
cre
dou
cw
mj
fin
hb
ry
expl
ple
cy
baike
##iff
produ
vide
om
##uld
ey
gen
qz
pol
fam
sec
##++
kn
ele
mob
mys
ang
exp
vers
nj
conn
py
fat
ut
cq
dat
##ont
sams
##cript
zx
##ouse
att
tk
ao
mem
ado
ju
rec
recovery
zz
##ref
youku
##amp
hh
vp
##wl
dev
##enc
temp
##ely
gf
##ated
beca
##udou
som
ext
ub
##ession
mid
bm
tao
detail
##quo
##ption
##oth
ls
sing
rem
ask
dw
je
##vb
cent
pri
tudou
gam
##anc
cle
bea
artic
nok
uni
jf
##.0
kj
##hh
##cess
##oney
##cial
ri
thr
##ete
od
sj
##orer
sur
sv
uu
docum
litt
px
##prs
##ount
ot
arr
chin
import
##mal
aud
teach
##ips
##eld
abcd
nn
vv
cmd
xia
ath
nan
sum
sou
prof
##ient
gra
hkey
beaut
##elf
manag
##ero
adv
jy
sty
ref
##jj
kv
vic
ow
diff
cal
hg
fore
sq
gta
bj
##br
eas
normal
wq
xt
input
oc
wen
dhr
config
woi
mach
jk
##ault
ass
##bao
met
wid
rad
flo
tool
lear
lang
hiph
##raw
tit
kz
ud
sor
##any
gv
##ieve
sett
disp
default
ind
thank
dk
wt
##olog
rep
hao
##ational
##edit
programs
priv
person
##fore
rade
vt
ear
dir
yo
##ason
bx
ja
wx
ywl
##rator
##ource
gx
mak
##zh
requ
tl
zu
mag
ou
newmap
ki
athlon
scan
upd
##iew
bec
eth
mor
imei
##ascript
std
ter
taobao
##iful
dim
univers
load
nat
inv
sho
shu
addr
prot
hiphotos
tri
nd
administ
grou
zi
noth
yb
cap
ton
##uct
kx
1.5
mah
swe
bn
zg
static
eg
width
tid
dddd
mz
lx
bir
zs
kf
##rist
jg
##iness
gal
##orn
sys
height
##571
pat
dem
##ump
xc
##ility
##ān
applic
hj
za
fg
cop
flg
um
dg
##ows
aj
fal
vicp
ich
setup
hl
pf
##ating
##àn
mh
lk
sth
yj
dz
bq
fact
ora
mess
cz
administrator
##cho
sinx
fh
eu
sz
##ages
sal
colle
##ior
har
ym
command
nao
##velop
ur
imp
csol
someth
comput
qzone
cra
ix
sx
mother
hm
xing
oper
##ought
zd
hol
9.0
qw
tar
##yl
develop
aoc
student
##ific
yx
resp
settings
ten
eff
##án
##itch
zw
##ength
##ract
ans
zy
##thon
##ote
xf
tre
mom
##ember
summ
activ
gener
ntfs
##ernet
pzd
nic
##ili
fp
rest
##omi
yah
frame
##ution
xs
gw
hx
##ined
tiao
bcd
bro
nf
heal
pte
ban
techn
zq
lf
pent
differ
pw
controll
##ices
vd
##ures
gy
sheet
qv
const
begin
tak
vn
sil
lib
exce
zp
array
ult
cons
jh
pres
lad
ez
##.5
njy
disk
equ
ethernet
hw
kh
listen
xin
##ask
regs
controller
vl
christ
pap
rr
cel
##loy
mer
alb
inform
hum
mil
bei
swf
dist
jian
teacher
ying
##kt
regsvr
##onf
toget
ant
sle
hal
ks
cid
wz
jc
fw
aq
feat
gz
##ove
##ester
xun
qg
less
uns
##ital
##imei
##ipse
##onfig
luck
yd
cosx
wond
dep
gk
prop
##look
lay
jt
fre
autoc
vf
ew
##clipse
kp
regedit
lb
amer
zj
lj
icl
wom
ent
##ister
fif
xxxxx
##450
mult
meet
langu
mot
wcd
init
bk
mir
##ache
acd
jw
nod
jm
gba
zhi
wy
cosa
struct
ys
xk
##imi
shar
prov
wonder
soso
yq
cgwang
meth
pq
rl
went
##gou
##iron
scanf
ini
##ates
dig
gong
##rib
mw
msconfig
dq
row
speak
hq
kr
option
graph
fff
proble
##0000
gig
disc
xiaomi
interest
kill
driver
wenku
tools
elect
bra
ill
##ense
pict
##ities
stor
yours
xv
often
lat
eat
eh
rtl
anim
##460
wc
cmp
bv
##item
ny
connection
cha
mur
##ln
gts
bw
cour
##dmax
bed
ffff
length
jx
##lei
nw
qing
gj
father
kan
lq
compl
yz
##ict
bey
tian
fei
wg
foll
reset
adj
yt
fut
hn
float
profession
cout
month
writ
nz
ze
##ited
shad
pur
##ative
password
chu
##tern
prom
##pping
wf
wlk
heav
sleep
jia
bac
remember
mal
xn
jl
tot
sus
documents
exception
clean
gou
##isk
yester
lon
commun
alc
lar
##ipe
mei
##apter
##uss
##anced
yesterday
hour
##az
wn
##rop
##235
param
qy
cast
ooo
env
##esh
az
fate
##ender
acb
##stand
opt
kc
jam
wj
flv
conver
##orrow
goodby
stre
foot
##ually
fj
kid
yun
mbps
goodbye
zo
dav
##hhhh
sis
##bang
uuu
##eger
##ues
tur
enc
dar
orig
xj
vcm
rb
zf
nobody
dre
zt
xunlei
fav
login
cust
roll
cold
exec
shang
wb
bur
println
vg
##zx
draw
galax
qk
##ety
zb
lie
cgi
gigab
gho
##ghz
dao
nam
jingyan
##idge
nr
uh
sad
anal
cab
bgm
integer
element
flow
ay
bil
smile
thir
yg
exit
##ween
fz
dest
mill
account
##ural
protect
mdf
##untu
##ced
mel
leg
##icron
mq
iw
asd
abd
flag
zc
omicron
prin
solid
dur
format
sit
hur
emp
upload
##iday
servlet
hist
sss
mtu
insert
tor
glk
custom
winxp
additem
drivers
wsi
lik
stdio
others
cir
giv
1.8
nforce
qd
og
grow
##ào
atx
mad
origin
task
syn
den
enable
stu
xq
bal
topic
sand
bon
graphics
cin
##umn
glo
roc
birth
catch
verycd
auth
##order
ox
cost
##áng
near
foxmail
nav
burn
##jjjj
americ
train
jz
dang
xe
pret
yn
dam
bz
parents
wdc
xb
jap
bdd
##ization
duo
premi
sdf
rob
yue
ali
pas
arc
##string
sto
##raft
fy
tomorrow
succ
rg
rv
##hael
mti
nacl
reason
rpm
awg
2.0
rand
beh
snow
##poe
arch
total
thanks
wipe
pie
arg
contin
cert
came
lead
##emon
qm
everyone
safe
exper
rtu
##gggg
cult
finish
cond
qj
##rome
gar
##ival
wlo
##bal
delay
##āng
autor
midd
mcp
jnd
charact
##550
nl
##tek
lw
icq
doct
hon
success
##itten
ttt
zag
perf
seed
##rar
gro
##ample
mjg
ring
qual
xh
secr
zxj
shin
libr
few
yw
saw
pppoe
ost
szd
sort
ymc
obj
##china
##onom
yh
##aga
##onse
drag
bbo
maw
autorun
insp
answer
adb
visit
byte
nzd
hv
lonely
lrm
zm
soon
lrc
##aver
hor
none
##etch
query
##ify
somet
##vent
woman
debu
coreld
##erial
kjb
oe
serial
##ellow
response
jfq
hen
tro
sid
ubz
outp
puu
sav
##lue
huo
jour
##mas
iota
pain
gigabit
##880
qzf
##une
seem
mdg
trou
cann
users
problem
##imes
muren
##oro
label
##eless
secur
gougou
utf
pian
kkkk
qx
aff
wel
##ized
yao
##ising
yyy
##bn
bao
environ
shine
goes
kyo
cang
##eron
nzdf
bqs
output
2.
six
defin
zta
##ktop
saf
bobo
pot
shut
symb
##craft
told
tenc
##āo
yc
door
define
exam
front
vh
##utes
realtek
jv
past
tencent
fest
desktop
ros
xue
##ashi
cmb
hell
##ency
sha
##char
##alog
##abb
jdk
sent
vvv
perform
range
gank
econom
voc
##iny
rece
poss
xo
environment
nero
##ident
dreams
uid
pj
##én
otg
ncr
cdr
zhong
bbbb
##unk
fur
zr
spec
virt
shou
took
1.4
xuan
chk
maybe
##str
grad
mzq
vk
kkkkk
kfc
lou
written
tfbo
lum
##ules
wpa
##ends
##weaver
gonglue
hdd
hub
aoe
##àng
fk
background
##000000
xdm
cnt
##par
extra
dad
##tain
classes
kar
ger
##īn
##ateg
sometimes
##oloy
hyp
##iled
pty
zk
incoloy
brother
swim
##ext
##fg
spl
plu
clock
birthday
cand
character
##els
educ
iiii
##icult
sinb
mas
kon
ess
lcm
fq
typ
repl
cmn
tfboys
pract
hang
##uts
nnn
everybody
##peg
ptf
##cci
fair
rdd
##íng
letter
join
ek
undef
propert
guan
##eter
sister
qp
difficult
yqk
2.5
qkm
pretty
vir
isn
hom
pix
jcm
wmu
meimei
ssid
moment
yzz
fdd
##ēng
material
vbg
dmu
repa
mcv
jnz
aqu
##ename
gun
half
present
prim
jjc
rese
ssss
##where
zax
hyzx
mouse
blood
lian
pick
ov
reach
phil
cannot
bjm
undefined
mpg
tsu
gate
border
disable
##atch
kvc
cloth
mxq
hid
##asure
corp
##prise
sund
bilib
ahj
anything
chann
ixus
##ones
gard
definition
##ole
intro
##ease
ybm
kq
indust
imag
position
having
##ants
jgn
comes
chr
jiao
ship
ql
qian
repair
rpz
wv
iee
activity
##iong
ia
amo
status
bilibili
tat
##iso
qui
oic
##ination
##stream
##query
cqtc
loop
boom
deb
eee
working
pow
ntfe
##elly
carry
asf
##ài
##unter
ppc
tomcat
caco
vbs
dot
til
##ention
ham
fail
context
lam
psv
yellow
siem
eight
ell
##ental
##imo
fid
floor
##ōng
eid
trouble
rk
drink
##ril
filter
##wap
ipv
peng
hast
dword
fuck
##ences
column
nar
lun
jie
ppr
squ
fac
celeron
fix
communic
vw
homework
##roll
conc
might
##sport
shall
favor
mou
chance
weather
##uit
poly
polic
fv
xiang
datab
gotta
stack
##loc
gq
hua
winter
wild
impro
mst
ifeng
hui
ade
lga
package
nex
partition
##ato
jess
though
breath
tears
heaven
hhh
able
emui
basket
arri
categ
mtk
doctor
processor
wk
##ledge
pes
amaz
##430
siemens
dual
mmc
gddr
flyme
doll
middle
inte
sens
##áo
##boot
fra
xie
chips
##ido
happen
fen
los
##pped
lic
interface
clos
usually
dpi
playlist
##ried
brit
dhc
likes
trad
filename
seme
rub
##īng
hbs
##ppo
##ither
##idas
##uth
##igned
nah
uw
##ulation
vac
semeimei
tal
##gu
large
bù
##iter
##elloy
hastelloy
kbps
tong
sen
##ban
ener
personal
##uration
##420
disco
bright
sab
clann
incon
appe
called
require
sfc
exist
##erc
##nam
wash
cus
teng
##ether
##ools
organ
##uf
tran
qqqq
##ater
however
smo
cvt
ara
bom
shan
kies
endl
dfg
record
phen
##uation
svch
vu
clannad
##dit
oz
firef
ash
emm
subject
wir
module
aid
maj
##ami
fold
beats
stream
fel
##qb
args
aob
ux
usr
##óng
wanted
jiu
unk
allow
minutes
paint
##owser
svchost
##oun
las
tay
knowledge
vy
illust
crv
launch
yong
rav
eo
qn
bor
forward
bes
iss
ding
util
cla
jet
cart
spend
##owan
##zhou
ij
configuration
yor
mfc
winpe
##ysis
belong
incre
eve
integr
refer
##sole
mms
ggg
tq
premiere
hrc
football
##ishi
scd
thous
panel
cet
buffer
inconel
mart
ppm
youxi
early
tall
thousand
jen
interesting
example
xls
##ines
wol
broken
vae
ting
danc
shir
##music
ach
tou
lovel
third
ble
cmwap
slow
ded
cydia
ppl
grid
mass
beg
mist
sdram
tz
trust
cmbchina
hund
sheng
##oshi
duowan
drop
occ
ih
nai
instr
chipset
##vey
alert
qqmusic
mum
console
mmol
born
deli
missing
finally
ava
tank
asked
ran
##ides
unic
laugh
vod
mmhg
scr
tig
##enty
unsigned
attrib
willi
chat
kat
rlm
nine
assist
##ises
##ected
foreign
quwo
combo
fmt
puk
original
dian
ber
kpa
leav
##ives
desc
##ready
dress
hai
vj
whether
sever
skill
rz
tbt
##raid
fant
basketball
3.
##105
spir
kitt
motor
later
2.4
spr
fer
vict
oooo
##edia
imm
quai
failed
##oration
contain
##ised
debug
cosp
afraid
##iction
ride
euro
timer
sta
rise
fig
tiant
stars
##nal
##ught
yp
avast
tick
condition
dal
evo
wood
acr
mmmm
hide
mbr
qf
cdkey
hyd
already
##ronic
##ared
pod
##pha
gang
resource
xian
vvvv
zml
troj
mmm
hours
ape
deal
zhen
##dsk
goto
zang
fort
##change
##lookup
##bers
bod
proe
cmcc
##ources
acf
sell
##ently
##ench
lives
miu
jud
guang
das
accept
##itter
options
piano
offcn
cosb
##sper
everyday
##éng
vin
wnd
yì
fill
ident
means
comic
decl
tiantian
loving
##aces
eeee
fab
##ied
topics
trade
hyper
taste
##ēn
patch
abe
avg
##ruction
##irect
behind
lala
dont
somebody
uy
happiness
err
inspiron
boc
sai
wake
gma
adapter
mai
warm
gan
hat
vit
attach
ctf
ej
mstt
convert
exerc
ifi
clothes
circ
icc
##ided
above
stra
##etime
ones
gets
##xin
soci
##olution
burning
transl
##ixin
plat
till
busy
pplive
dai
hib
qh
wal
cccc
tana
twins
theme
walking
deg
##ots
kno
partic
hou
nq
##ocol
ground
##kx
autom
##istry
cine
suff
sssss
##nown
writing
kfr
grade
##ele
##jian
xg
##qing
knew
wife
depart
sse
vill
danger
##imate
aust
layout
sunshine
oicq
oly
toy
mno
##df
nin
installer
##uda
replace
##itional
reb
introdu
##ords
apply
unknown
##cii
capt
qqqqq
takes
0.
##uz
sinc
ala
viv
rising
##ension
mao
gave
wonderful
##elle
##mt
bri
##osh
weight
fool
##aq
yī
minecraft
por
gggggg
uuuu
aftern
blank
blu
hurt
cdk
nono
remix
pdd
problems
wants
truth
rou
includ
heard
telep
yf
asso
mich
stick
oq
prefer
##odes
afternoon
##pression
evening
knows
register
jì
##usion
sig
bott
million
alive
kuai
activex
associ
scroll
xw
tired
teachers
major
##ott
olymp
chkdsk
desk
jio
sli
ven
##ended
##vern
toc
##eta
lnx
lav
neg
##510
gift
meeting
##itude
repe
tes
##220
bud
sizeof
improve
initial
desire
cuso
apu
loved
##yin
quad
pom
vlookup
pcie
watching
alth
trojan
zuo
rank
sang
##pty
uq
mcc
coll
geor
accord
consider
famous
templ
cot
hundred
##5200
twenty
hco
##elves
##hhhhhhhh
dvr
volume
pho
qwq
rrrr
lll
pok
cfg
although
talking
##izu
vid
##otion
diam
##ony
converter
thom
given
browser
tun
acad
rng
forg
hxd
pz
bie
pcon
property
pig
strength
flu
flower
##dx
zzzz
offset
cer
ish
##210
lpl
##rac
##aya
##bei
abo
zippo
shake
dab
compon
sqrt
rule
khz
fecl
hate
milk
kara
##ori
enabled
kil
random
clo
pmp
##gd
following
lil
dbc
values
##iting
careful
writer
uj
kok
##ema
##yuan
mye
rush
wil
shutdown
singing
psd
flowers
fhd
rather
##stal
alm
lijia
govern
lond
yr
zwj
gpedit
cuo
boos
yyyy
outside
##enger
hosts
equip
weixin
huaw
jimi
bike
hno
##achi
##atu
reboot
cpp
bak
##350
hex
##archar
aakx
acro
kick
trees
yingshi
rema
healthy
kang
apart
employ
tostring
juu
ole
taking
margin
wtp
##hui
pconline
skycn
aaaaa
felt
##ential
csgo
hifi
falling
lei
roy
minute
mobility
hung
##ech
ssr
##osed
oce
asc
tttt
groove
compet
ther
rund
##pal
##itive
sexy
worth
oj
gso
seems
##zhi
kore
##iling
yk
sda
##reme
wide
bow
##eto
plugin
##orus
farm
stri
##itting
##elds
invest
bbb
##phi
dfu
tap
gggggggggg
apn
umd
oy
##umb
uo
dsg
cit
dtd
hash
itv
consum
drama
##fort
textbox
zv
adt
##hao
bind
pattern
##320
##emy
rid
emb
itools
breaking
oi
downloads
unlock
offic
monitor
##astic
lovely
animals
spirit
##ission
remove
##rii
struts
phenom
ctfmon
guess
##ellite
isa
broad
onl
ful
dire
psy
##ffic
##ibility
hook
vz
iz
bull
##7000
ddrii
telephone
attention
tsi
yum
kern
quiet
##action
zhe
certain
fash
shoes
storage
##istics
##ograph
meng
promise
viol
ooh
vq
sna
remote
yout
acrobat
dub
nahco
egg
lind
dinner
byval
sales
aver
##efl
temper
##oop
##èi
practice
started
aed
lover
chick
poor
kir
##acy
##click
modules
##riend
##used
##friend
##310
dol
cro
swimming
instrum
##345
inner
bottom
lgd
appro
huatu
electric
##bie
##agr
keyword
##illa
jdbc
quite
directory
dialog
fro
##ilt
gas
optim
##ternal
##yang
shel
sharp
##ector
folder
crow
cmnet
coff
align
coo
shot
##770
rayfile
fields
hidden
chain
jkl
localhost
fear
loves
pray
kis
sugg
##omm
xmt
xps
##player
mrp
changed
peace
##atever
whatever
hosp
dma
arms
aabb
jord
sold
##ensive
cbg
heavy
qqlive
##èng
entertain
looks
##inem
suggest
pul
parent
ico
boardid
zhan
dba
songs
hay
treat
gbk
bae
haha
guy
##istic
needs
tgb
clim
##ief
wer
term
##fast
dun
destiny
chn
infin
peri
dae
jew
youi
woo
qingren
##òu
termin
butter
sud
itouch
primary
ways
tow
##inedown
onlinedown
##zhu
fes
anyone
coms
wireless
é
lai
##oma
longer
pai
rout
##ille
scar
nik
##chan
limit
parad
mes
empty
##asa
##inst
##rew
intell
##anch
xxoo
upon
whose
##odb
akb
##orary
listening
iask
instit
0.5
gkd
pause
role
trace
geo
ord
customer
dia
amount
adm
##jk
pac
hbe
asl
dor
dancing
tct
cbb
hibern
##jjjjjjjj
##ived
##ici
##ái
respons
quan
eset
lines
loader
cof
##wr
cou
diskg
across
attack
rat
fell
dsf
nga
pers
ign
countries
choice
export
scale
ahci
##ately
dynam
tsh
diskgen
##aly
luc
calc
qiu
disabled
industry
mirror
rundll
varchar
descript
##aha
##asy
fba
ori
ability
illustrator
haw
hei
ocx
classroom
##api
##yue
##odesk
storm
zpz
tok
sick
dsa
000000
ome
redirect
runt
sara
loud
bought
##tec
##óu
lunch
winnt
hibernate
##zai
execute
weekend
sant
wolf
coverage
flex
##ased
tut
higher
myeclipse
header
yv
almost
lights
colour
provin
stm
according
shì
kao
pictures
meaning
##ago
seg
##ailable
##aper
daemon
cde
europe
muse
period
monel
ein
tgbus
transport
distance
##alo
gent
##xiong
##lib
avril
edg
champ
##ability
shoot
##dri
##apad
prep
ons
medium
protection
mond
##aku
buf
bee
whe
cmu
lion
submit
trim
finan
tiff
setting
dro
hospital
##igo
dtc
thin
honor
cele
openg
xīn
tax
yù
gee
kva
bol
dede
teen
cls
ideapad
throw
serious
##gbox
ota
kernel
layer
##ffle
runtime
fgh
teaching
##530
taken
timeout
angle
virus
quart
##gw
psk
##eters
detect
shape
##pron
pref
pages
crni
rog
sempron
datas
spy
##itar
defy
sak
due
##odo
swing
msgbox
progress
nich
shock
ker
aux
pengyou
counter
handle
lux
dut
fsb
##uri
wkt
worry
##ersh
ner
german
poll
bio
aeb
exercise
##ards
smc
police
scient
operation
bsd
lew
comb
xmj
##crmo
##gaz
government
##izz
bul
chorus
complet
##ype
integrated
##asing
##ists
##ín
several
chm
##cious
##uary
benef
##òng
hwnd
repeat
fruit
zhī
rot
distrib
feet
resources
publish
transfer
nut
stock
tam
mars
rtx
gem
chao
##inx
lnk
community
##omo
portal
tilde
##cu
##éi
pair
##enda
zoo
ultraiso
uef
surv
license
rect
aqua
hhhh
countif
nit
bass
fad
apc
##5300
sym
ron
either
##mgr
gamer
##edi
ema
eminem
ics
zzz
quickly
department
##ipai
sei
blind
xmz
cooh
celebr
saber
##apt
steel
ment
bound
##ances
raise
##410
rice
catalog
corel
daw
invite
ale
blow
discuss
fle
prepar
fee
##rict
grub
austral
wiz
locations
wú
heat
##aba
least
ocr
relation
mouth
iex
shsh
##ancy
pool
auction
nes
kou
selected
hoho
asa
##ables
respect
##ceed
zai
changes
instance
hebe
pets
cute
jos
traffic
gain
##pet
kun
glad
##sty
instead
suit
msm
pour
##ically
hiphop
plane
##eful
ist
tanx
boole
mariah
began
##810
##shan
zzy
secure
huan
commer
cub
animal
netsh
eval
hyt
##ige
##lement
flying
kingston
##uring
tex
advant
vari
whom
boolean
average
jgj
analy
collect
shuffle
iost
##idence
shared
cacl
rainbow
msdn
bdc
##aki
##vert
native
rip
relax
invo
wet
bos
direction
magaz
ogg
cars
iostream
solution
##xa
carey
dimm
fund
bce
yú
knock
##lect
situation
complex
##att
jon
##èn
bba
valent
bde
alloy
loli
quant
satur
bam
princ
tried
lì
successful
##ifer
calif
internal
tgp
##oku
shinee
finished
classm
moonlight
dry
##inger
ptr
xvid
ooooo
description
temporary
##ēi
##sg
##ado
himself
bool
ecc
##arm
favour
##akes
##shou
##oria
##pk
gradu
iexpl
freed
region
ion
dwg
xfs
arct
cass
eating
memories
bga
faith
among
sudden
flac
vector
province
fonts
biz
jas
invent
finance
sudo
breakfast
uz
crmo
lots
##908
recent
guitar
##uto
iel
atl
cuz
hellip
qin
nak
boa
abcde
training
hbsag
cda
ais
soo
kkk
aod
sight
##umi
chuan
civ
uefi
##avi
sender
silence
encod
saying
standing
##ener
##tex
chun
provider
transform
wep
zui
##fang
emu
centos
chair
##anet
ami
##fire
yog
adf
fromuid
westlife
sogou
##inter
achieve
piao
xiazai
held
multip
climb
parse
torrent
medic
##610
bab
##aged
necess
lucy
entry
##oyo
californ
deter
proced
apm
##fd
yingxiong
statement
##ulator
todo
append
##xue
dangerous
omg
kaw
##6600
amazing
motion
saturday
kinds
valid
feels
risk
eof
usp
akg
caps
played
kur
template
pud
diamond
warning
happened
alright
split
stl
##ological
activities
##230
bef
ada
##ops
##ūn
fem
jjj
beginning
therefore
sixt
##103
lif
bid
lsp
mvc
looked
bois
robot
##kes
##others
hunter
reborn
bieber
ishare
french
expect
pull
##sock
charge
kcl
typed
ending
##col
##eria
##ying
##ufact
inno
##xing
##yun
guard
iqoo
mechan
##ending
pinyin
pressure
##vell
kof
##gest
hearts
japanese
aba
nst
afp
kal
keys
paradise
branch
cooper
##ander
movies
aero
spm
malloc
agree
cherry
##afe
rows
mrs
emule
ultimate
provide
manufact
symbol
##mmmm
divx
lal
vel
vray
lyn
tune
sample
speaking
learned
protocol
lies
ipa
ielts
veget
commit
##ifier
compos
appear
zxc
calling
rules
funny
##inder
frequ
mask
sae
compat
sma
cru
tous
pip
deng
xiu
diction
sugar
meizu
seji
jeep
failure
pav
plot
ime
checked
hun
sept
mdi
chong
gin
##inal
places
lit
stellite
results
hbc
hdtv
wmp
interested
circle
espe
mut
dump
llll
javax
bca
items
construction
useful
onclick
hack
##itical
cdb
rén
comfort
iexplore
figure
yamaha
smok
expression
hil
mang
maxim
bou
except
yas
abst
repub
jbl
horse
nvme
sdo
monster
equipment
1.6
iron
##essage
alter
devil
##ady
straight
hydro
eac
pao
backup
eta
tip
monkey
miles
especial
##386
century
legend
opin
becom
ucar
scanner
phoen
##gis
magn
bun
component
freedom
##spers
olympic
haven
hans
ccb
bcp
proc
various
director
##iable
aajs
supply
svn
##vation
diskgenius
matrix
launcher
ansys
darling
questions
properties
lianxi
tte
activation
##xie
dsc
##emat
##301
##acc
suc
ith
csdn
magnet
##201
jag
##dl
satis
tail
clk
##vious
##inary
concern
fas
##idian
further
ours
kin
awp
correct
preview
stan
traditional
chs
ave
uncle
edc
spent
jad
##ldr
tianya
dei
staff
cash
influ
delic
blues
shader
built
gcc
alo
sgh
autumn
para
jer
ens
##hon
ning
boh
abstract
sounds
voa
##racuda
barracuda
zix
flight
vacation
typedef
temperature
estab
ana
skd
startup
##ppa
singer
benq
boat
regr
tsy
opport
fol
caught
shim
prob
fanuc
scene
compaq
dare
##209
zzzzz
republic
weak
ate
neither
measure
cow
effort
telnet
opportun
especially
rang
yok
receive
##road
rhy
ticket
igame
mss
##aling
tbc
cheat
##icy
unc
fighting
marry
fob
gentle
chip
race
plays
beast
##ores
everywhere
##ires
curs
merry
shipin
princip
russ
##ges
dum
##info
establish
belie
sketch
cif
crack
qwe
##202
rex
koh
phoenix
biu
##303
##anti
orc
##620
qqpet
##quence
cvw
visible
degree
douban
##mf
##hood
vag
impl
proxy
kdj
gia
##uli
cmy
hhhhhhhhhh
##teen
peer
dce
qiang
linda
brad
cher
nur
sed
favourite
##omp
##bur
generation
everest
parameter
bì
##pres
vob
xī
##hic
##ively
##yte
percent
ctm
cbl
waste
operating
##330
explain
##kyo
aes
enh
leaf
reser
logic
penc
angry
audition
seek
awt
##agrid
##ōu
expert
nig
btn
##etic
mcn
coat
tmall
fax
bread
tpe
hus
speech
recy
brow
##mani
bcb
##ahl
execut
obs
##ushi
dcb
pra
meg
became
##aur
builder
proud
##igne
##ably
holding
nad
leaves
equal
shining
restart
keyboard
vert
friendly
parameters
viewer
wcg
shí
wis
safety
lived
eav
wings
ttttt
dust
selection
hunt
mdb
token
bkb
##iles
ige
youth
mydri
##esis
##tery
aec
rac
moving
##utton
gab
dying
gogo
##reader
koto
excell
ixp
impa
##ception
gram
extreme
pron
tpu
##cmp
##gbt
purp
hem
spot
nom
cmf
gray
datagrid
rolling
iframe
nag
gateway
grc
listener
received
mydrivers
##esty
fran
macrom
depend
prior
pwd
required
grass
giving
##818
notebook
yui
gol
##820
spd
thirty
webs
##enge
dictionary
coloros
subst
demand
lao
maint
liao
dynamic
chart
agre
lid
designer
fenbei
gall
##bl
linkin
certific
ware
nun
realize
contract
##irm
##ulu
turned
##iler
mong
anci
kav
hé
shellex
epc
procedure
cosc
une
leon
##rupt
##elo
##pend
rio
kobe
mono
dea
fron
ima
factor
hers
tru
##dmark
meat
vok
##rics
concert
odbc
mop
forgot
liv
leaving
##orate
ise
continu
dsl
ends
uri
mmx
##onex
shui
rui
liter
dcd
zhuan
prote
##iley
loss
##ppin
dbf
##aker
##logon
pocket
dfs
platform
taxi
weap
lift
##agon
winsock
behav
brought
restaur
biao
kle
gtr
absol
##vt
##awa
chall
bmi
pei
##ughter
zam
##ases
##eph
##850
amv
pixiv
mig
swap
pcs
carbon
volte
grant
birds
spin
nfs
twain
leep
ipc
qo
pil
##alth
zhì
declare
uzi
zha
dogs
signal
solve
fds
proper
articl
australia
uchar
resist
suddenly
amr
kug
##args
caption
##awn
dde
egf
brothers
bless
coup
##onds
toshi
princess
brain
uint
##write
mand
goal
laser
klz
lavigne
hkc
handler
jol
dirty
rapid
##āi
registry
##opt
cps
reference
##rol
shout
stronger
fairy
##alid
psw
operator
ebc
phot
%%
hardware
repres
rihan
groups
anymore
prevent
gct
members
pear
##itsu
pmc
cable
difference
##560
xqb
vitas
escape
sevent
debuff
intellig
processing
imagine
crc
cdc
##ulate
separ
ugg
pascal
civil
##spersky
kaspersky
##voc
competition
crying
accounting
kee
washing
consumer
arctan
pit
dmi
necessary
pnp
dhs
##308
rst
##302
##ection
duote
policies
tight
##108
bpm
passport
decided
journey
issue
simatic
##kao
baso
ari
##ivir
surr
impact
snap
independ
sitting
tik
medicine
##630
##bd
arrive
kmno
quit
zdic
rol
specific
pch
indiv
parts
aren
thems
##ured
psn
pla
##iance
pfc
kugoo
fink
##zhen
newsp
##iller
awm
container
epis
president
func
sie
nation
##ono
technical
sese
##aster
##nimo
chéng
classmates
dra
##install
##sb
spi
silent
rpc
rail
dawn
flat
fēng
##ects
tale
ovi
nei
tennis
sched
scen
rabb
##words
sqlite
themselves
winlogon
##tpage
##icated
jewel
recover
1.3
pun
1.2
wit
##ays
pump
tiny
##open
sof
donna
nub
perm
qí
died
compare
growth
rum
cant
vfp
killer
invalid
##ichi
hklm
dé
amb
##haps
spell
individu
seat
##780
jī
mathemat
noise
seq
rihanna
##onic
caf
recordset
protel
hrb
spread
antivir
passed
iy
moz
gel
somewhere
##ùn
forms
##aru
emer
skills
dmc
era
ahead
cdfi
##band
##iver
frontpage
csv
edf
giant
valve
endless
innoc
eventargs
getchar
regard
##user
ancient
cultural
wds
##ante
bbd
ucweb
infinite
fag
##icient
rsv
wasn
pods
pppp
thick
pag
kra
connor
notice
behavior
tata
intent
sheets
cham
tin
brave
hud
dà
##kai
bohler
assab
##207
##eb
dil
stories
saar
extends
clark
svcd
afc
fla
finkl
administrators
tpo
##ione
##240
##hib
jojo
damage
pencil
studying
fancl
corner
avo
##una
##bles
fake
##ilion
drawing
##agram
##izer
advert
apolog
aca
rod
catal
tsx
seasons
daughter
##itation
argum
koo
fdg
carefully
##uru
cursor
cea
delicious
datetime
fpg
router
concept
girlfriend
##iment
mont
kmplayer
butterfly
route
sop
##cheng
strange
advice
aspire
foo
needed
padding
panda
alien
pls
userid
guid
jtg
dst
pep
daido
daota
##erator
##rier
dish
evil
titan
harm
##gra
opinion
stc
attribute
##ila
england
surpr
##aries
dunk
diao
##eday
uvb
lvshou
emotion
succeed
##roy
constant
slim
cdf
below
##feng
##ilar
xeon
fred
dwz
##stahl
pon
ked
##608
saarstahl
imposs
##rem
bian
socc
##diag
##oda
kings
shoulder
minor
hds
loan
tube
aime
tts
##wh
blur
alg
male
##ally
vue
soccer
##fb
encoding
##ditz
groditz
lower
breathe
##afee
crowd
cmyk
##uctor
##acity
gigabyte
mpacc
mcafee
iccid
apples
dreaming
uin
sandy
wenwen
visited
dxdiag
harmon
sims
pudn
treasure
growing
manage
bash
pleasure
refr
convers
yoo
sool
duck
##igation
eyed
auo
##oli
aion
worked
holl
zhuang
pavilion
britney
jok
heroes
everytime
website
cue
tanb
paid
compan
##lied
external
antec
lia
##angle
strlen
##hol
kept
epe
vbscript
jjjjjjjjjj
doubt
names
crash
immedi
unlocker
middot
calend
meant
sic
ucc
##orpg
##ún
strike
colors
blade
feso
versace
pse
neigh
recogn
clip
##oder
ped
mun
plain
nico
##qin
##yd
numbers
ead
bbbbbb
arrived
sweetbox
helen
vehic
bomb
damn
occur
##6000
replay
cef
##ilities
motorola
cjk
sè
##eros
iam
addition
ore
shania
##iot
excl
wouldn
filled
macromedia
ine
gpt
allowed
miao
oledb
kms
ndsl
##2501
mimi
##cles
impossible
hclo
increase
tms
sds
coe
hime
##355
cinema
vent
##boro
yoyo
bacl
certificate
starting
##203
##205
excited
warrant
tga
romance
##eline
dic
slowly
##html
charset
xhtml
hoo
##321
controls
fixed
skt
bitch
mirac
ite
##like
ond
coin
qqq
amt
catia
hehe
shēng
animation
vii
ode
agno
##ios
##fei
##hand
##reci
wac
ced
browse
##erence
unable
demon
sheep
eic
niu
mina
decision
dion
octo
sbit
gim
dash
fault
hsd
cities
qun
horiz
agn
duty
abp
friendship
dee
##lier
rú
stup
kingdom
talent
##102
recomm
##stein
##jjjjj
dff
understanding
purpose
firm
hob
sew
adodb
ntr
psych
##xb
calendar
##paign
compar
relationship
transaction
pia
stress
accident
adams
quicktime
exists
##exec
dì
mgh
methods
sensor
##lw
hardly
district
dmp
##ims
archit
obser
sleeping
devices
confirm
ness
reflect
artist
##listener
vxd
render
##305
cbe
ras
umb
robin
asdf
eme
prec
abac
excellent
overr
warcraft
creat
celine
mission
tiān
rabbit
ntldr
##eness
twin
##wave
crsky
cancel
chocol
##eno
easily
shows
essential
nmn
named
typeid
ross
assistant
##ites
ait
react
ddddd
##yx
mds
pbt
##orton
cli
outer
misc
champion
gsd
lex
chou
ong
##eru
yuk
gua
sag
precious
smooth
hab
surf
liber
sist
moi
##aire
dick
excuse
##loader
##909
driving
jre
ensp
kpw
suo
diss
strang
wbc
##station
##ication
cccf
besides
translation
introduction
organization
eag
ket
contents
contrib
fedex
represent
avc
equals
actually
##xian
luna
elem
particular
##ifu
fireworks
frag
xxl
whi
msv
kanon
phase
lua
##ounce
implement
##ogo
phy
queue
uva
telev
##595
ink
tara
##rical
trick
jac
##680
hik
extended
pieces
clamp
feature
tst
shao
##ela
babe
jiàn
scream
purch
##irt
atapi
surprise
kay
broke
zte
##vp
lag
jui
poi
kono
wim
perhaps
srs
greatest
##710
pct
##vard
hawk
determin
passage
gai
labor
winner
gives
eld
##ples
stru
yán
lets
prefetch
sme
gnd
crmn
vegas
pang
deliya
##260
smoke
hole
##rel
pride
ccna
opening
##osit
soph
moved
similar
ohh
wise
##emp
appreci
pingan
germany
iris
spect
tei
mud
##izing
kam
rong
jsq
ttp
generic
gla
nul
brush
##window
##136
listview
##etooth
ttf
genius
lip
knight
discover
nen
wechat
worker
##eman
##ync
bluetooth
julia
mmd
ure
esr
##860
tek
kei
papa
whenever
##rit
approach
berry
wai
xiong
cun
dict
jizz
wnj
usm
minim
xuexi
mù
mobi
##kj
summary
ipone
##boo
##iva
jyj
tyr
shak
clever
##anth
wishes
andre
rin
yuè
highlight
gid
##spy
holy
3.5
##game
expand
##ondo
spears
jung
##urance
dio
checkbox
bose
liqu
fdf
owner
ipx
lemon
gor
apologize
obd
signific
reasons
##7100
emmm
dyg
dada
##oul
lookup
desp
##duct
closed
byd
bfd
walked
kart
csc
architect
ski
planning
adjust
finger
##itted
gtp
##hhhhh
##hhhhhhhhhhhhh
##720
socks
ois
mofile
##ered
btx
##ankan
telling
adtag
someday
darkness
myst
tear
reno
suffix
boku
producer
shuang
qì
doo
prepare
dataset
bdf
mort
lack
models
##ography
eun
cntv
toto
nove
corporate
pis
franc
profess
catalina
rnd
mistake
stupid
ewido
restore
pir
jenny
graduate
bund
purple
hes
ses
attachment
rainy
xì
advantage
##aming
##edu
##cpy
ecd
##8400
##onda
television
zhuanti
warranty
mam
##sters
piz
pollution
sakura
helps
aipai
##elve
arcgis
steps
career
lessons
kpl
##iant
rewrite
loga
bath
tomm
chinanet
particip
##270
##830
tomato
smell
glory
toshiba
bda
gly
halo
acqu
##ario
volt
feelings
bitmap
##aser
asin
interview
lich
workstation
revolution
arraylist
zong
selina
fae
bcm
sorrow
nubia
foxboro
lyrics
pred
##kh
##isy
hous
cō
##ames
phant
jí
##asant
thus
grey
schne
opportunity
cube
reality
solar
actor
exciting
mountains
##pson
maxt
microm
ris
macro
wheel
##rate
conven
vcr
fift
gcd
crim
smoking
ppa
borrow
##sec
leader
mian
##bg
ina
workbook
frequency
gates
nap
##uno
jax
##amin
##sphere
jes
gridview
hbeag
maven
mia
##antic
assem
datat
epic
##olved
faster
anywhere
youxiang
kankan
vie
embed
##scape
twelve
ere
trig
visio
elements
adapt
resume
##crm
ybx
cso
influence
commercial
jesse
equiv
honest
cfd
seeing
##opy
wend
tric
christina
attend
cōm
jenn
ctl
##stat
battery
compatible
prod
fade
peak
ceb
court
afr
##8800
hug
lmf
snake
dyna
sataii
prison
okay
opc
idx
laur
ward
sama
aia
oad
older
ladies
afd
passion
advent
whit
wins
idle
cac
mim
regular
inputstream
##324
beside
usim
##910
essay
caused
meas
##alled
susan
vocal
nac
mxd
cpl
norton
kne
##unc
attract
alarm
lor
palm
widget
boo
##umin
míng
defaults
holic
tup
exact
lbe
sdhc
jms
bits
kite
serve
league
##call
##0000000
ddc
assign
dvdrip
closer
##249
craig
types
liú
oicp
npn
greed
clar
emo
bbbbb
joan
decide
automatic
positive
ral
installation
painter
ourselves
classid
uninstall
coast
tops
willing
seag
ets
cancer
defender
##leep
jasper
married
robots
##oni
dock
##iga
altern
##1200
##xl
conditions
msp
female
michelle
poker
dds
##ipan
##atory
spo
sul
thx
pier
terminal
zom
elf
aar
##orp
perry
mistakes
una
##rique
afe
##8000
translate
##180
regist
porn
micromsg
ecf
mood
pound
bottle
destroy
juice
skh
utility
##enth
crnimo
hac
aunt
antivirus
##208
bree
powersh
losing
cob
sac
bla
mali
ideas
rul
forty
stdlib
citiz
fdisk
ece
wrote
cheap
dod
gls
clr
bradley
roman
jīng
##lash
vost
episode
eternal
pst
remind
srt
boe
##itong
wacom
sumif
gei
lazy
##thm
cleo
jsc
instrumental
imba
waka
inch
campus
##508
oneself
stopped
##idi
edius
mul
tousu
plate
hsp
vegetables
tic
rent
bjd
abu
opens
shān
absolute
epub
sect
legal
helper
##3100
##asonic
poe
fifty
importance
expensive
effective
ysl
tif
##fix
##213
areas
turning
ital
orient
mssql
emerson
zì
tet
asm
individual
gos
tum
hae
hana
eicp
vous
gle
testing
indic
##dex
habit
encour
gian
rome
cec
lamp
coser
pcl
bond
enterpr
disease
zixia
##kee
##emo
benefit
override
snh
##cv
vst
fù
nos
shn
wscript
priority
wrt
##650
adp
yeo
##ned
circuit
achi
handsome
wéi
plug
##leg
gith
##206
sentence
nae
##esc
chic
seal
scm
##emi
ius
jasmin
created
##endi
##ished
subl
extension
snd
bars
sets
probably
mgcl
cares
crush
alloc
zou
bfc
baa
##ternet
##xiang
##wy
vostro
##inkle
lying
##spect
hurry
xcar
dlg
##lang
drum
dies
midh
eca
##rack
psi
daf
bleach
cortex
nose
acpi
upgr
dop
aqui
heng
virgin
tdp
phantom
aur
##add
slave
remain
##ird
##oken
##wall
dup
anata
examination
micron
dip
terms
fet
vagaa
boring
edd
cxw
##td
refresh
##rick
ctc
miku
caxa
elite
xiexie
wxga
barbie
eleph
owl
chd
jue
##reg
slide
dmm
sung
##reet
saved
gil
miracle
yxlm
##def
##aram
4.
fue
fsd
##meng
investment
febr
pam
schneider
gree
alcl
##init
nil
baf
objects
kua
worm
##tre
regret
silk
electron
daddy
gene
taught
abroad
usher
hgh
##ribe
nights
htt
sip
fighter
nest
perl
##970
payment
avoid
numb
banana
saving
spawn
treatment
ndk
nian
ordinary
variable
rhythm
husband
tables
csr
stuff
##bour
cheer
rear
##huo
installed
##dj
##319
kel
opened
plants
binary
ecb
weapon
bmx
ect
##once
newspaper
zig
sources
advance
##xc
potter
army
segment
##hou
strict
meal
##roth
enterprises
svip
radic
##yao
sword
##bios
obtain
dbm
laura
##mei
ack
clou
imdb
chur
cui
akon
angels
sock
cect
constr
thre
cav
ric
eliz
edb
xyq
sally
radius
##reh
##uin
dfe
##print
uim
nnd
##sw
messagebox
##img
fog
worse
sherry
explore
wtf
palace
spare
##sto
keil
##etown
hungry
ooxx
cbr
cats
holly
##layer
agcl
fú
technolog
anyview
##uu
doe
cooking
mods
colorful
##etry
##570
##aby
dfa
naruto
guns
xcode
corre
##kan
aab
fried
hometown
employee
scaling
##irs
crown
bonus
uuse
carr
pand
movement
rsp
nel
lolita
##jjjjjjjjjjjjj
victory
##arius
senior
delivery
yuri
pall
creep
cath
atk
##olo
minus
depth
tome
bone
sonic
identity
manual
temple
##oting
lips
canvas
##addy
hobby
fft
jeans
numer
fantastic
poppin
alias
famil
avr
shr
stp
sku
swear
ida
ddb
##dg
##fil
cng
simp
caa
##gex
uusee
jbutton
mide
##uka
levi
diag
imgload
##osc
lant
enrique
##epad
vvt
efc
qcc
flame
umbr
iku
tion
rexroth
##abi
helping
asy
##dao
wherever
ssc
##product
hlj
0.3
qīng
wast
okok
networking
fatal
bloom
fopen
sublime
gmb
peek
##abeth
nsk
reduce
deuts
huge
notepad
cards
changing
developed
kokoro
bullet
caus
strate
##iciency
ito
##211
wsm
expected
##xic
customers
mole
bbk
##ained
tub
sketchup
dex
finder
##hong
efficient
mmsese
##306
gib
components
wra
dans
survive
cartoon
trial
datasource
##qc
blame
bold
responsible
##uted
##rike
couple
kent
sì
ers
coldplay
bigger
dif
mmo
inj
anth
victor
aus
mtp
##enter
legacy
##bly
characteristics
ture
scientific
dbe
##rible
sasa
tac
##emic
wif
crossfire
endif
##304
bedroom
enemy
##és
##empt
##ava
##170
sumproduct
recently
##error
##oko
cum
merc
##jiao
##ogue
nbs
spider
##eland
##iri
novem
axis
##lake
##760
##close
thy
foreach
sans
efd
wire
crypt
##inct
asme
patient
rim
jvc
##elin
enum
lov
punk
ebook
seagate
sdr
##8200
workers
increasing
painting
cpc
tdd
soup
kwh
tommy
##estic
luv
bpd
##shu
aad
cnki
gbl
lianmeng
jdg
nood
vvs
fully
rib
kris
duba
mma
lovin
boyfriend
dak
cyber
gran
winavi
smd
unless
nim
strategy
##draw
confidence
redhat
alco
destination
lect
concl
##803
eeg
lis
prt
watched
timber
compreh
gym
clouds
##iving
sequence
kana
synth
tdmi
sail
tae
yume
jit
jié
developer
gto
##aks
imac
als
companies
##aro
cous
##fan
secondary
bicy
##estyle
potato
##xia
##zt
triconex
lod
expo
emsp
cbf
facetime
ufc
##iru
##ired
fbm
xfx
tvoc
huā
worried
puts
ddf
marvell
dospy
indian
players
parall
##6500
idol
bub
harder
nop
scl
schools
prepared
##tip
hed
##soft
mesh
msd
danny
watashi
charl
mastercam
dake
fever
lieb
kry
shite
##oft
##nti
##iyi
kod
##ali
films
peach
kas
computers
glut
enet
accel
##inet
lovers
mainly
fru
spc
mcm
professor
prompt
kitch
lalala
dispatch
desert
negative
##uly
partner
wot
dty
##olve
juan
##erty
ido
dsd
##doc
quadro
experi
agreement
cnd
cyl
monternet
throws
##street
flush
shimano
adult
sola
3.6
mental
groupid
umbrella
relative
##ored
mpc
ats
nip
fifth
##pse
kingmax
neng
##mmmmmm
mmmmmmmmmm
chase
##cache
isee
uses
yinyue
cstrike
##aging
ouo
mein
tia
vat
scope
helped
gōng
introduce
tooltip
keeps
pointer
jīn
##325
basis
strcpy
##asha
fzl
dial
wawa
ér
flor
wizard
##exception
imap
##wise
##nx
kog
income
##umo
assess
technologies
cort
dive
aph
##707
##oph
trend
instrument
##esign
rsa
wsh
##xq
jvm
surprised
namipan
cvm
##ensis
adren
bryan
schol
liquid
slot
transp
jhtml
streets
roi
##izi
##anel
administration
##iper
entity
##gf
shouldn
anime
vns
argv
rtf
nelly
##tered
##790
ddt
##ening
towards
innerhtml
fraps
vehicle
mario
cycle
sich
pak
##otic
ntc
plore
##jh
xqg
xiāng
##omy
tda
upper
buffered
gund
sjm
cri
pmma
##guo
wèi
haswell
drw
meter
wealth
cdd
dsm
dxf
lamb
falls
bcc
rei
ideal
beck
nie
surround
yáng
pcp
mda
dipl
celebrate
tend
quarter
##enced
backstreet
mapping
marm
aop
africa
##307
reverse
##udu
##anyl
plastic
midnight
ylmf
sot
sigma
lau
extract
lawyer
prc
requirements
susp
cháng
instruction
zuk
jink
cò
configure
baba
tues
cycl
elizabeth
becomes
shua
neun
diet
##4500
##ecute
ebf
##dh
coord
upgrade
spoon
hia
##ements
authent
jou
jtk
independent
##312
tlc
passing
keypress
mch
qiao
interrupt
multiple
rrr
fca
robb
attr
xitong
teeth
##she
##bsb
##rich
ucl
##ened
kclo
biggest
##osy
coolpad
kak
codec
lotus
##appe
##ilin
tod
yufang
mso
doom
rig
fcd
voltage
##strap
iru
bamboo
guangzhou
dimension
valentine
hover
##urus
##xz
inet
arth
jjjj
peerless
ano
soap
qiān
imx
tourist
##ishu
acl
softid
##uni
ont
prize
aas
##enn
duan
bart
imessage
##iphone
jframe
capture
immediately
ppd
ferr
dag
shellexecute
sora
affair
aka
mò
concent
fbd
netbios
tec
yè
shèng
uac
##screen
ccl
bó
uat
jolin
xpress
redu
stayed
stere
substring
pleasant
crew
##lim
commerce
tvxq
vamp
##atives
fendi
invoke
thousands
shaw
tds
dcf
pill
ratio
fsi
jaco
##label
bootstrap
cdq
dodo
boots
courage
alcohol
##exp
nearly
applet
ppstream
acv
nmol
maxthon
youyou
uit
gimme
earthqu
llv
ftc
##eral
##wind
extrem
overflow
##930
fourth
anyway
returned
kvm
paw
columns
dich
shēn
mcd
huh
##father
yí
jiā
req
likely
ntu
deeply
orch
sono
mmmmmmmmmmmmmm
critical
nab
electro
rsi
gather
bgp
alanyl
##660
scand
produce
knife
agu
labview
lig
insurance
vaio
ddp
fallen
rbc
haz
rts
##bai
stk
ica
cmc
zeng
zhōng
##stic
loaded
vot
##717
##950
simpl
singap
kab
xnd
ptlang
lac
kag
brook
disappe
eggs
hase
fusion
##aint
##chang
getcha
##with
haier
dolls
##eding
chess
dfb
asking
stro
lck
##isu
plans
seconds
##wish
##oup
gat
tfs
##2200
tql
responsibility
gage
maximum
##job
fsa
##door
##enon
spoken
tuesday
onm
judge
##aloid
dmz
billy
3.3
##ppe
gmm
cim
gbc
thor
becoming
##bid
grav
##hold
characters
fec
ops
##iser
##ussy
nearby
attitude
hee
hybr
persist
##allow
boule
vote
##riage
disa
dca
jìn
arrow
agric
sher
##990
activate
pba
##jet
moe
cleaning
ark
yuu
roses
olay
dow
##cw
##date
actionlistener
salary
supposed
itself
gabri
efi
neu
tps
yuki
eaf
nancy
wearing
fortune
cucl
##iliar
physx
pab
tui
stuck
##316
yuán
firewall
verse
cole
umol
cosm
trigger
efforts
revit
srv
onda
ria
mta
ccs
sue
aware
linear
families
capacity
kpu
guanjia
caj
##lip
hits
mccart
arrang
##icit
deliver
glasses
crh
sān
mention
bbin
##mj
xtc
clearly
##cler
##212
zao
winm
assistive
##ego
sfp
packet
cip
challenge
ddy
voy
bqg
odin
##itu
##lesias
kcal
##ament
histor
aci
##have
frais
vcc
talents
##cue
loveless
##browser
##message
icbc
tfsi
gti
ule
argument
assets
gwy
exhib
mnt
clarkson
traveling
rare
occup
indesign
##ulations
geass
iusr
lied
syd
ican
ame
oxy
venus
##inate
twist
bundle
reached
ppppp
gmbh
cns
literature
##anying
bells
sixty
comfortable
tender
chén
mae
pif
rae
frd
##comm
curr
neck
craft
freak
flav
affect
uno
callback
ani
completed
mccartney
moves
datagridview
wont
fpc
sandisk
buck
aaron
bbkk
walkman
vocaloid
nerv
promotion
sore
plac
walls
faa
ijin
leb
##eration
indirect
iglesias
keeping
supper
plugins
kol
lancome
ucm
##ously
bum
lù
phones
dui
##urb
jovi
##onn
edta
gdi
##eln
abab
starts
calm
arred
fetch
generated
happily
##itary
##518
terrible
supermark
opencv
elder
anton
abby
##osition
sī
performed
peg
viva
keywords
bach
zdh
theat
qws
goss
dcc
plt
joint
quq
bcf
##7400
tough
congr
raz
5.
nts
razer
fishing
lsi
lane
##rypt
##okan
drug
##nh
ijinshan
vma
arredondo
appearance
jinkou
ams
faker
leuc
iqiyi
marmot
raining
##opher
cris
##cad
lenka
agricult
##crmnti
dfh
jyp
glc
broadcast
##eda
tuo
bags
poco
efb
projects
asleep
netstat
whois
kpt
##nu
valentino
indeed
hbr
volun
boulevard
##lection
shenzhen
analog
##comet
pph
qqt
isk
curl
aic
zhijia
jade
popup
lightning
##raction
wars
betty
moore
missed
toi
afk
wù
hybrid
bsp
kugou
tasks
mdr
criminal
volunte
alf
meters
katy
##color
phar
getch
##fen
envy
potential
tells
ges
cpm
rage
ddu
attempt
xrv
rach
faces
tns
cts
stg
sia
zsy
frp
killing
chop
ita
golf
dedecms
factors
##uxe
compiler
##oint
sisx
amour
extremely
runs
loy
hmi
##280
bern
tout
jesus
herself
barb
##asion
fileid
polit
simulator
##2140
##ati
##standing
leading
winmpg
toki
rubb
studied
##raz
wak
mgr
juli
phd
alienware
##980
hood
##iation
suk
scared
happens
espn
##ih
cds
castle
simply
cran
domestic
contains
variety
buildings
mtg
riding
tone
ike
fgj
ease
manif
nightwish
hnd
substit
sax
retail
##5400
##ompl
vice
maths
childhood
mlc
kor
##iac
utm
sacr
architecture
liked
mdm
programming
hjk
rocket
mgo
adreno
lean
cocos
stood
deny
esd
considered
upc
sxe
turns
ici
forgive
decoration
vig
##erve
myth
wmi
lgx
lili
upup
##olas
chap
political
clone
academic
dollar
citizen
osp
korean
rud
##area
onmouse
diana
substr
cleaner
tdi
frac
ubx
##sf
chuanqi
quantity
mdk
pbc
ibook
bitcomet
exercises
funt
sla
accomp
stsm
playground
eagle
tourism
chv
proteus
qwerty
diab
invited
costs
##mpa
##arn
##asis
kirin
entr
completely
joker
lev
##ients
biso
captain
gyw
midea
sole
linked
crime
brings
hurts
yjv
corn
thinks
csi
##ians
calvin
##active
magg
helpful
complicated
wallp
carried
incred
division
younger
mhdd
thoughts
cny
kom
fdc
vnc
thurs
dsj
##106
##gba
laughing
earthquake
shuo
stretch
jiān
subs
mile
encoun
geu
toe
chief
##igu
cinder
##quan
beatles
intelli
##andy
hdc
##ogawa
spyware
mpq
grown
logistics
cataly
truly
angular
joke
valu
sprite
gxg
btv
esl
jhg
jidian
invoice
##ifice
elephant
vov
cong
swot
rpk
modify
##pf
##dle
backspace
killed
earn
btchina
watches
sls
synt
cock
universe
innocence
gub
theta
assembly
puls
wes
appeal
ctr
saga
hdv
nal
languages
cvn
occurred
units
rpr
##class
peas
beb
hooks
poison
modicon
##uxue
chaos
retina
##wers
ears
familiar
produced
kappa
navi
macos
unf
tobe
##osis
bosch
0.2
tta
nda
##276
agv
cul
##795
forge
okokok
huay
infi
ignore
jué
##keys
rivers
showed
thursday
largest
convenient
toxic
drv
clap
lollip
rdisk
##5000
##gie
##ando
drinking
straw
asymp
satellite
instant
verb
philos
icmp
##case
dpt
##fy
##spe
hyun
pearl
hhv
sisters
##zp
hart
jaw
osx
##ulated
speaker
pong
lance
pxe
cind
mmsc
leucyl
hasee
##xs
telec
remark
ncu
lud
certainly
yee
mhl
fdb
##bf
preferences
auf
##otte
dào
##layout
##imal
restrict
##zs
thumb
relo
answers
difficulties
electrical
soldier
3.7
smb
housework
hlp
slip
ane
wednes
witch
wjb
reve
recommend
##ardo
##urer
jìng
rez
##kawa
hin
superman
soil
##acks
outputstream
sint
begins
brief
mua
warri
lap
##athan
##mov
hts
mcf
sides
jpanel
ids
##2180
nicr
shf
fing
tupian
ism
rein
dkp
roaming
##ophy
deutsch
fēi
abcdefg
##mission
confident
communicate
gdr
whats
##var
otk
carp
sno
practical
lollipop
##187
wednesday
osu
##dir
idiot
##qian
tens
verify
lantern
##688
mystery
gum
conqu
jfk
##7200
cours
supermarket
##menu
tera
dfd
##aph
unif
columb
obvious
##disk
##iding
issn
koud
##break
##berries
ghf
##kr
prove
##215
##uster
knowing
awa
aisi
##ership
waves
pipe
nickel
musical
yukon
consult
opo
daren
dfc
schedule
##arent
scratch
anytime
##amo
dē
smiling
navig
##crete
zfb
##ithm
spool
italy
hilary
fnc
wod
tol
ching
dmg
##ids
mio
phr
gri
sprint
##fied
yxb
rhg
ioexception
added
oki
sug
sdl
oda
dbo
grandma
fame
weekends
hermes
wrap
mzi
vul
breeze
nju
greater
pkpm
shield
hir
sink
southern
measures
dru
params
##ensity
wee
dalao
purchase
ifc
xíng
rag
doctors
horizon
ego
shap
kui
cjq
haokan
replac
zan
bop
greg
provided
india
cure
hfs
toys
##8500
##ibus
guar
inject
notify
nowhere
holidays
##ynos
gds
exynos
gossip
conduct
ocp
##vet
leap
lxy
vita
locator
bicycle
##ón
maintain
hah
dda
creator
connected
xil
trap
extend
##antec
objective
cfe
vas
##edo
hsdpa
strat
kad
##onna
eck
synch
koudai
fso
##icate
batch
houston
intelligence
highly
crit
hdp
##orb
##199
describe
fcm
dsn
vivian
mugen
appreciate
aeg
scorp
flood
##zzle
shun
0.6
sweep
fcb
bada
itudou
fub
dxd
stranger
tooth
guys
judy
kie
##cf
officer
wms
##enne
styles
sts
##store
sincer
marks
pkc
fhr
amanda
bluray
fuji
##335
##808
lea
##isse
##ede
noodles
lyc
divide
automation
##309
nucle
##zzy
beyonce
rooms
slk
swp
ecs
generate
lomo
nti
gut
arcs
atv
tele
resolution
interval
lst
fuj
fifteen
formula
gul
dnd
issues
brid
minis
syntax
datatable
##etta
semic
mdc
rubbish
fis
aix
##sheng
##619
yokogawa
smg
soe
##hire
mdl
##child
amor
##cled
stem
matth
intelligent
lem
promote
accur
hobb
##440
includes
cinderella
writeln
marsh
signed
zune
##xu
alison
##rise
cta
hspa
ese
##spp
twe
mhy
rele
rescue
##xiao
significant
ies
##igan
cnas
finding
hips
pim
##290
executive
billion
lcp
pics
forbid
symantec
vampire
legs
nurse
##uta
##uate
slee
lub
kap
obl
sharing
##6300
msx
cstring
located
csp
dept
kub
concerned
excle
insist
##sheet
bps
tenda
dasd
covered
corresp
scc
constra
beef
jacket
wasd
vox
larger
ymj
eep
els
##ourd
established
nina
zhòng
uta
rtm
svc
packages
tio
winform
cooperation
woai
lpt
vgn
reload
calls
ruo
realm
mechanical
##lements
parseint
##rw
##130
standards
kung
reform
frv
diagn
##ethyl
seemed
##sey
jab
kot
##zb
saa
frw
difficulty
funtouch
functions
nara
##190
exm
brill
sst
##center
chuang
hut
advantages
erics
yea
beam
whisper
noon
fbl
##vw
gareth
differences
levis
maroon
tablet
manifest
reposit
sht
tort
##thus
mse
##352
xvx
deleg
dated
hills
shown
alp
initialize
##isi
##nl
rty
flashget
wallpaper
kus
ghs
cousin
##phone
presents
lrh
grammar
fdy
marlin
hydra
albert
tango
rosa
##bage
rays
##zhe
annual
ghj
quatt
stub
creation
snk
burst
##adapter
cen
##rog
anc
dianying
gbe
nob
mcl
##iano
shipping
ought
carlet
lut
##ulus
uatm
recycled
##iration
neut
jfj
msds
##uer
rán
ohoh
krt
##cin
##258
amc
cpk
klein
reaction
rab
operations
lens
moveto
##ilder
##mat
otz
gsx
bsc
buzz
lezhu
dana
ggh
memo
fragment
woke
bcg
lifetime
timeless
quattro
pua
xdx
moa
generally
honeywell
winamp
apartment
ccp
principle
kda
ericsson
anybody
implementation
lrt
##4200
semicond
gio
##601
##vdc
evd
hog
httpd
converse
themes
mame
bitter
aduin
hóng
caso
ern
irq
duang
meid
zombie
lín
sweat
atmo
vick
combobox
shouji
xià
pant
hexun
onekey
errors
##218
hpb
strings
developing
alib
daisy
hgf
##193
hào
##chem
##endo
##701
fbc
fou
mex
ama
cay
committe
carter
missha
##ffe
acfun
directly
##eath
enhanced
poem
adopt
emerg
rì
marriage
het
nte
composition
latin
hso
lunar
cqc
naka
murder
neighbor
wpe
hush
steal
rta
proof
lene
realone
ubw
suitable
dew
manufacturing
lasik
profit
justice
##show
tmr
railway
folk
easier
eax
##ropri
hearing
zim
returns
searching
eec
shù
nipic
mann
##eror
prayer
efficiency
spaces
incredible
domin
designed
conversation
oak
remo
gog
liebiao
presentation
mits
cig
awd
stain
forgotten
fce
suki
egr
asn
chrom
argc
mathematics
corr
holo
defined
ptfe
cjb
exactly
apb
glu
huì
syt
sapp
efa
##long
pussy
##sequence
##ades
meiyou
bluest
chest
genu
deluxe
interpr
compact
dài
##vol
gbps
ipt
##parents
grandparents
##ships
afb
flags
##mel
yag
alip
permit
hsv
tuf
wnz
whist
##eller
hbsab
gom
former
ete
newhua
ske
haod
dancer
tóng
dbb
frog
##state
drift
##worth
fgd
aria
hag
btc
grep
##2160
tvs
jtl
##iced
javac
folders
prl
tas
reporting
bush
##upp
gāo
seas
tempt
joh
hammer
##pressed
britain
jjg
kes
profibus
updates
picnic
videos
issu
jiay
additional
aven
hgj
clsid
##398
ugly
nowad
xox
rey
whoa
##ento
##dale
sunrise
memor
dbd
cic
transportation
kath
apex
##dong
mixed
iid
ulead
tray
proceed
lys
fwq
keygen
nvs
##oming
compared
##228
multis
detected
cried
runner
##essa
txd
strateg
cih
winds
skies
shī
##cool
mls
##enie
crp
meyou
aids
algor
crisis
paste
cases
shx
##grid
glow
aru
nmm
gradually
mui
shame
##2.0
esi
discussion
##1300
consist
wwww
wwwww
supported
jke
pdc
ruler
contra
texture
mtm
comme
outstanding
evaluation
fay
##iers
bmg
astro
funk
bobby
trading
##icks
heji
bruno
##eds
##oxy
kilom
volley
mainten
voip
ech
bgn
bounce
stereo
wip
semiconductor
mik
##club
charm
fai
##ilog
earlier
rider
woc
##xiu
vap
aspects
alipay
lak
simul
csm
awake
goin
bong
northern
ive
##ftp
##bridge
empire
anthon
cutting
topsage
lmt
bts
solutions
tty
##586
pretend
nowadays
ftis
careless
blocks
hbcab
featuring
##4300
##216
aint
yàn
phili
dsr
bluestacks
relig
locked
multim
realized
##ppoint
lmn
arab
##keep
##6717
##sim
##obar
liz
##access
defe
distinct
military
pico
pione
presario
nitro
##aut
asi
claim
buying
vend
stamp
bubble
strip
experim
iri
rsd
jscript
cuba
dgc
lend
ovation
pasta
cherish
ffd
ffc
efgh
##inton
prog
portable
##inity
ntn
zend
iwant
lkj
efs
jog
##clast
xuān
tutor
pane
rough
oral
bench
gdf
##array
ftisland
tegra
describ
shirley
##214
fond
stam
floppy
thermal
cdm
whitney
templates
clothing
romantic
hse
dynasty
##730
harmony
disappoint
líng
superuser
aae
stad
casting
letv
worst
bfg
##cular
##jb
obe
##gon
tuan
##image
trunk
pcpop
fuel
primer
##otype
gest
shooting
bend
actual
daylight
sour
aptx
ziw
tast
fion
##mother
followed
##jn
skirt
aladd
dent
dishes
lps
jig
odd
pilot
altium
mumu
fos
permission
dealer
carrier
foobar
encore
innovation
##index
weiphone
habits
##ifa
tob
labs
teclast
srx
frozen
iterator
pca
msata
unfor
cooler
gamma
kiki
modbus
aoi
onen
llm
pcd
enjoyed
droid
como
vfd
checking
##beat
cmmb
airl
htr
grave
gangqin
fea
npk
snmp
vdisk
crs
polar
xam
slg
estate
airplay
drives
##380
pup
##540
downloader
metall
##801
aladdin
whql
##elli
ultraedit
##isha
rectangle
aso
zard
talked
##otao
aer
fbb
discip
entire
staying
dxp
imagination
bite
nio
##zk
##etric
taller
tib
jù
ued
estim
crl
koko
repository
##onym
ald
##bag
institution
hkd
##390
shū
darin
##run
dob
iti
##phy
xcv
##fish
contr
3.0
customs
dumpl
cnm
committee
otherwise
believed
##6400
##708
mana
servo
afford
paipai
zut
aya
ryu
xoy
##ees
truck
##bytes
##logic
zer
hallow
gpio
unload
popo
jtext
wkw
nef
##4201
##umber
trash
matthew
flies
arena
bfb
cht
highest
yule
enb
mercury
substitute
##322
amber
zhangmen
tóu
grip
nyu
settime
drunk
oliv
uniq
unexp
hollywood
satisfied
zoe
implements
##usa
sti
wincc
coa
gaokao
abm
cred
cvs
twinkle
dove
##ryn
subjects
aki
miley
ruan
shark
vertical
moo
hent
aabc
amx
nou
shoe
##kva
rdb
yak
##ialog
qī
gms
bloss
sweety
exr
epdm
samba
itx
hust
##illon
onc
##water
lonel
znso
jlabel
shuai
onenote
znd
nem
arcsin
##226
settimeout
boto
capcom
wisdom
impression
emperor
omoi
bok
tsub
ggmm
slam
blos
miami
gfx
kgf
wildfire
daum
cca
genuine
valder
chill
powder
infl
nong
prices
sne
optical
lóng
wendy
violin
diploma
cena
##ansion
kmp
ecshop
upnp
tracy
freeze
identifier
fmq
nsis
##960
mcs
appropri
electronics
pcmcia
catalyst
scholar
##002
fde
##abel
autoexec
ady
teenage
grew
geom
powerful
iter
wén
clover
hacker
guān
unexpected
peep
gad
##eready
beans
2.6
ensure
bnc
abcc
execution
mimo
ccie
##204
##rim
ān
conan
mmp
ute
moral
gior
yunpan
madonna
##323
fany
interests
hanging
naalo
gir
##inan
imageready
eru
pursu
ndsi
naru
decimal
dgs
##lers
thats
##ensions
minimum
pleased
adventure
pagefile
##188
sxs
correspond
mint
mercy
##aland
##vention
isol
phi
##osen
rgp
mnet
kpx
##spot
bling
cotton
krauss
bfe
nations
qingdao
docs
infinity
moda
appears
eden
crus
constraint
fruits
zome
ster
gbt
##lands
ccnp
runn
hito
punch
sqr
braz
synchron
gravity
anxi
ymd
entrance
##osite
avx
eighty
clc
juj
printer
drew
slr
messages
dct
hobbies
mbox
##etsu
##plot
breaker
tse
njg
pou
jak
scx
wah
lsd
sau
chuck
bāo
apq
qte
##qiang
fiction
##rq
1.7
winning
koi
gangqinpu
duke
statistics
spar
defense
stew
horn
graphic
##pb
andri
clin
##925
improved
zyz
##east
scenery
explo
fellow
nmd
myster
circum
nicht
farmer
eul
maxs
bbf
##owen
docx
aiai
overall
recorder
kaka
entered
zuò
##guard
hdf
experiment
hfd
cfr
##cai
sadness
hasn
mete
laf
snapdragon
multisim
##hal
##iture
specified
fallin
maintenance
onload
alternative
slmgr
fmvp
evdo
innocent
npm
##arin
rus
relev
animator
relations
locale
beer
personality
wàng
##track
greatly
evidence
vero
slight
harr
##umer
netbe
##obile
spt
torch
nmb
feedback
dvdrw
wishing
##901
actions
rhino
chū
##xe
advertising
reward
charlotte
grandfather
jingle
lna
sincerely
strcmp
buzh
houses
contest
nahso
travell
huashi
##stood
fright
troubles
miki
sino
##899
##isions
##fat
acou
jae
##ytes
kwd
chl
lob
cox
##odc
dnp
wre
triple
cbm
wand
bounds
##507
jmp
noi
alibaba
tide
kew
gemini
pcap
zqs
##shen
fisher
kane
##agen
##ango
causes
ovo
##317
##zou
fortran
zvz
##wx
hanna
threat
relay
mie
##ining
quote
snoop
iop
coz
nca
nuo
furn
nervous
##ania
yún
nán
rings
##udio
ibt
reflection
##311
registration
botox
clown
bzm
xlsx
tfo
anch
##rv
trek
ices
tpl
bowl
##501
zhù
##pez
pace
transmission
successfully
esata
loser
taob
##orous
##ators
marque
##oru
##iden
shadows
buzhidao
ation
eeprom
uvw
hbm
monica
xen
policeman
sapphire
##izes
##vest
nanjing
##ubi
existing
eut
qián
thief
conflic
lpd
courses
juy
imo
adele
gcr
fep
##505
unre
shopee
flip
rfc
nous
kira
##mod
amn
##237
##kd
bent
tus
rer
jude
naclo
mmr
argent
irr
kow
##rees
ove
doors
niao
wangye
authorware
nodes
shay
shower
ksp
nnnn
mea
fluent
beep
smaller
shooter
ilike
##izhi
poke
grandmother
##eon
oooh
ssa
detection
rie
jal
loneliness
hier
aguil
hav
aguilera
tdt
logical
##jm
tape
belongs
accepted
moc
variant
igf
gfd
challeng
##113
pue
triangle
tiss
subway
rai
diva
##stop
simulink
konami
matters
stev
workshop
andriod
##andon
cate
mts
adodc
lighting
wound
dlx
accounts
drown
chlor
barbara
makeup
doctype
vida
species
hú
blast
nuk
mhb
tef
bic
ufs
##anned
wayne
iro
simpson
keyi
volleyball
acp
gala
wecn
##kou
kawaks
skp
pmw
##ulin
benefits
employees
ihave
increased
rita
##zn
##arily
mitsub
youni
platin
combat
dile
plm
obc
##222
otl
garnet
russian
ler
##itate
anr
kiz
fiber
hosted
champions
ayu
laws
tpee
tir
##onto
##msg
disappear
biang
violation
qiú
selling
rains
##iana
gdb
yīn
qbz
##loan
imaging
lara
xiaos
conclusion
mju
ctx
hè
abn
quartz
simulation
sù
alle
billie
miz
hba
gloria
depends
sosuo
##hel
qqtalk
pata
dys
##esa
struggle
egl
bry
eui
resistance
aom
reports
##aren
##conn
shockwave
##ogen
##reate
warn
digit
msvcr
motherland
mima
somehow
secrets
leiting
##eston
odi
##gpp
multimedia
roads
gau
funky
soy
pbs
mata
subt
icd
ascend
gosick
skull
koe
lecture
lnkfile
nwz
connections
dcim
huáng
zhuó
##chu
aaf
bbt
yuku
wwf
oop
lui
picc
neil
tof
pwr
throughout
scripts
torn
christopher
aee
##dz
##353
agency
organic
epp
bokee
tests
##enu
guil
ndf
renew
zhēn
##iche
usual
leather
unha
semi
jumper
brazil
nbr
yaskawa
cyc
junk
xywy
qrs
ckf
bour
advertis
ally
bufferedreader
deer
timest
unlim
columbia
##1811
ree
##keeper
vivid
widely
voices
textarea
rtc
wàn
vbc
##cell
##rock
##cont
sichuan
pants
##race
toolbar
belt
jeremy
knees
penny
lí
savings
rtk
ndy
drm
mitsubishi
cyrus
theor
ubc
requires
construct
liuxue
##udi
tianjin
silly
oss
dht
##401
scientists
##olia
gsa
penryn
yonex
atheros
##107
ggjj
coal
flows
cranberries
dism
trop
zhanji
grandpa
gbytes
plenty
freestyle
nir
kia
jiāo
ahh
hepa
ecm
##ilia
cqy
doa
upt
highway
etl
examples
trem
wik
doin
hbeab
pitch
4.5
giao
pioneer
hugo
xixi
##itan
papers
yon
huà
extern
abg
jum
uplay
digic
ery
mcg
##zj
geng
slay
wheels
kefu
vocab
mhol
underground
wpf
zin
sector
##defender
cvc
##xpr
idt
##anni
begg
limx
naku
hán
##elu
grate
compatibility
signature
ddl
bitdefender
sensation
svg
ene
compile
eea
parallel
rbq
concrete
nextint
##chester
jjw
ume
cdef
##osi
tbl
rnb
pkg
calib
atmosphere
emoji
vary
buddy
bored
toward
bingo
eprom
redist
kds
##233
##estone
dressed
bootloader
##editor
floorf
rural
eine
rober
sust
ira
luò
fucking
picasa
gfh
classloader
timberlake
qaz
stein
##238
cgc
onto
lyric
##919
##217
usage
micky
##idents
passwd
texas
mathtype
jur
lls
weld
wax
##nz
watson
terr
delight
noo
##fall
tpm
comprehensive
##reds
synd
weblogic
bones
##anas
aeo
panzer
sii
afx
forbidden
degrees
tyrell
networks
kaze
##atar
##bm
##785
##sj
blossom
hbo
##525
pole
swan
##zhong
ruu
ohs
##ifei
birkin
kawai
##333
needn
dolph
##uti
##uxi
wenda
sana
fclose
loose
msxml
##frame
sekai
gamelo
partial
lsass
kuwo
gifts
jib
windy
xmta
xpl
stores
loudly
tis
##806
puff
mì
mold
lung
fgf
robbie
indu
##265
olympics
tiancity
huai
moments
deta
brilliant
walks
zī
sejiba
sitem
woah
jewelry
edr
plist
dreamer
bootmgr
iwill
wrapper
##vely
##upport
##pix
shàng
sgx
nothin
aha
ssp
merom
kenn
dmx
msr
protein
##490
shm
tribe
bwy
inline
ifun
vor
##amed
jiji
zil
zqu
##gia
ccf
xar
nanana
resident
dudu
boston
arashi
avs
ejb
pbo
cuda
evan
basara
bā
bump
trail
phpmy
##antha
audit
vital
badly
##ours
didi
drops
gameloft
hoping
hyc
climate
assessment
##338
panther
tracker
debian
##eton
##php
sting
seriously
##oster
aspect
ruò
achie
##spective
dyn
fiona
lpc
criter
ffg
memtest
situ
appid
goldwave
listbox
yard
oni
pvz
transparent
suffer
icesword
floorfiller
##iables
baid
##7500
##111
rapper
ftn
disturb
bearing
attachments
ela
graduation
pens
webbrowser
##117
bron
cvv
valuable
hundreds
currently
precision
gag
lse
quy
blizz
##ppers
nfa
sany
sysrq
leona
determined
baseball
##ifeng
##114
bib
##borough
vsb
eaa
##encies
##khun
xiè
nichkhun
cfb
cheats
phpmyadmin
included
##vv
ghd
tpv
arguments
sees
negot
zod
hql
lpr
yóu
##qiu
##docvw
tha
##458
dilemma
apl
wml
powershot
dap
marine
sacrifice
paim
liver
docume
wie
racing
##ée
zhuo
visitors
shdocvw
judg
cmm
mari
addict
digi
collections
toggle
##agic
rct
contribution
rust
chate
yzm
visiting
##941
sometime
##502
russia
mans
raised
iar
bmc
gianni
joo
hentai
publisher
ncl
encode
mongodb
leu
wos
foods
mend
rak
ryo
drinks
surrender
hcv
isc
ggt
##edy
spx
schema
ninety
##920
wmd
duff
##ifen
fancy
asks
xnj
dfgd
fabric
separate
laz
##iry
##ulary
xiào
attraction
banks
##osing
larry
locals
cola
aoa
eleg
jsa
gtasa
dido
ineed
nonono
##heng
wells
aries
ksc
divided
cfc
tch
##ewell
algorithm
wuhan
rubber
hikari
cruel
ldf
nfl
pha
##ancing
omron
wey
decade
##ère
##login
arrival
hkg
vfg
whosy
##ourdaddy
whosyourdaddy
##ocus
formal
anonym
firmware
##andong
carn
dwd
##xprxy
actxprxy
appropriate
eub
nta
sdi
diablo
osd
##511
##udo
seventy
relevant
##elor
##mlk
follows
filtre
tickets
giorgio
grg
aslist
ntg
##ixi
dvb
jill
##cht
pga
vibe
discount
unlimited
##wich
phon
premier
associated
lè
gst
##alu
facing
kissing
teaches
soi
rachel
cfp
predict
sons
aol
manufacturer
adata
cfo
terminate
##ulet
moden
mune
cog
seller
bucket
univ
draft
cie
authority
iph
sniper
##995
mzy
riot
signs
dàn
##223
nee
laid
fod
sites
spanish
jessie
acos
oliver
dsqc
mó
lof
overse
cara
iap
crawl
##phony
wamp
##rod
midp
##118
picked
abandon
reject
idon
artists
hue
suppose
benj
sld
illeg
ardu
##528
chose
timestamp
##618
resultset
webkit
uot
personnel
classical
##chant
parag
sbr
clay
compound
praise
foolish
americans
pity
pine
insight
uniform
ifunbox
joey
attributes
##server
odg
greet
vpc
mapp
symp
rational
##yt
reported
eason
athlet
dptr
vooc
perman
audience
acoustic
alic
scn
aida
mif
etern
jiāng
xss
##eli
quietly
mib
ireader
sunset
persons
dmf
greedis
lnode
zài
promises
vocabulary
svd
bailey
spain
ous
hearted
mira
wsloan
waited
rox
##apers
pharma
ccfl
timed
toil
inventor
##mgmt
classmate
nia
farewell
##805
mtime
atc
##off
sofa
iou
powershell
haodf
cartier
historical
keith
zgs
stable
nis
##eryl
xyj
mdy
ntp
chy
quin
markets
xii
##chool
zun
fota
xor
ert
barr
julie
decode
##client
ubound
copper
vos
sweater
anchor
ldy
##iveness
kuo
ahc
emergency
##zhan
explicit
skg
anni
preparation
therm
continued
pii
ài
hoshi
##start
notification
marquee
pist
##315
everlast
qhd
pptp
joined
unp
##227
##rive
syk
crossing
aav
troy
bdb
countryside
##oly
intr
tau
privile
drawn
irc
zhishi
lts
organiz
tradition
hihi
lopez
##00000
opposite
wyt
filtrec
nss
heartbeat
pum
tú
genie
hpl
remains
##icat
ashley
scientist
là
haoting
analyze
phosp
unhappy
bff
##224
ppo
##789
platinum
##8600
rah
ssat
vertu
fah
mps
nicole
gequ
pth
##zing
##sum
tongue
dome
educational
##rene
cather
frames
formation
##iest
linn
yat
mustn
dsh
sending
begun
##see
tant
mjc
##gun
sow
jackie
theater
sauce
latitude
eoc
baco
creating
secondly
##illing
oto
involved
prosper
neon
mute
##959
scf
hoc
oriental
ona
##esta
##isc
ospf
jni
counc
qid
wad
byt
cage
worksheet
##rative
prev
berg
stroke
ghc
novo
shakira
##ilu
unus
##amine
lookin
waters
##proc
zhū
helio
benjamin
fry
##icing
xman
ned
angeles
batt
closing
haj
vant
fot
udf
##705
##itech
mnc
jsb
xsl
opportunities
lucifer
mime
nani
mitch
mau
shore
pandas
perip
libra
riv
sailing
5.6
##1650
guangdong
##wide
spice
wowchina
crowded
mechanism
rdt
polite
blizzard
spoke
spp
teens
countdown
##grad
##cut
ante
##236
orders
dyx
wrc
ewg
fern
swt
rebe
hashmap
prototype
##ador
och
kingsoft
cngba
kul
sydney
##arts
tma
huayu
rit
aads
improvement
##olor
##402
taskmgr
lyx
sage
gcs
junjin
prism
qig
pdp
netware
hdt
nid
quantum
aaks
booty
guilty
cigar
cem
volunteer
nrg
可以
什么
怎么
如果
自己
公司
这个
问题
知道
现在
我们
还是
需要
时间
时候
手机
因为
可能
服务
多少
但是
这样
生活
一般
比较
系统
所以
或者
电脑
应该
工作
使用
谢谢
朋友
情况
还有
建议
很多
然后
企业
选择
游戏
喜欢
有限
专业
中国
方法
进行
电话
他们
下载
管理
为什么
一定
健康
进入
主要
产品
一些
治疗
软件
如何
信息
注册
教育
已经
网络
技术
通过
也是
出现
而且
其他
开始
注意
出来
希望
医院
东西
大家
直接
那么
孩子
感觉
这种
正常
觉得
那个
哪里
价格
不过
看看
地址
个人
学校
文件
效果
请问
大学
行驶
安装
以上
影响
里面
设置
学习
北京
意思
百度
提供
科学
地方
非常
小时
只要
左右
要求
功能
安全
发展
处理
别人
世界
公里
活动
网上
这些
设计
是否
只有
解决
原因
咨询
根据
上海
一次
怎样
社会
哪个
关系
显示
你好
以后
经济
只是
推荐
淘宝
检查
方式
银行
容易
宝宝
重要
设备
才能
之后
帮助
内容
经营
起来
一直
工程
联系
支付
其实
国家
具体
市场
作用
基本
同时
所有
中心
方面
部分
分析
网站
范围
目前
你们
看到
就会
数据
了解
娱乐
采纳
最后
项目
必须
分钟
电子
发现
质量
申请
点击
打开
哪些
考试
单位
学生
运动
生产
高速
告诉
自动
当然
名字
能力
支持
文化
属于
回答
查询
地区
只能
材料
成功
操作
身体
以及
每天
业务
简单
过程
品牌
自然
皮肤
为了
用户
相关
特别
免费
老师
汽车
比如
信用
无法
视频
休闲
人民
密码
发生
控制
找到
内存
这么
客户
研究
各种
销售
投资
经验
引起
卫生
导致
适合
电影
由于
以前
程序
更多
说明
这里
速度
考虑
心理
很好
答案
办法
环境
人员
介绍
结果
对于
条件
帮忙
今天
邮箱
记录
电视
方向
回事
得到
医疗
肯定
责任
包括
即可
经常
有效
关于
英语
详细
具有
任何
小说
办理
空间
一天
科技
以下
标准
规定
能够
食物
首先
平台
保险
恢复
资料
音乐
认为
可是
连接
代表
每个
全国
输入
造成
艺术
微信
女孩
成为
开发
好像
虽然
深圳
下来
国际
显卡
状态
培训
医生
应用
怀孕
产生
本人
症状
基础
事情
资源
之间
机构
男人
重新
图片
完全
另外
减肥
其中
手术
身份
提高
最近
建筑
学院
女人
行业
作为
毕业
那些
上面
成立
下面
那里
完成
增加
移动
也有
保证
知识
版本
存在
维修
配置
准备
组织
想要
晚上
金融
达到
任务
美国
普通
部门
因此
获得
模式
对方
确定
技能
法律
经过
在线
客服
清楚
继续
严重
职业
查看
国内
系列
位置
保护
一年
您好
历史
都会
资本
购买
等等
月经
各位
妈妈
大概
交易
证明
就好
运行
城市
保持
爱情
营养
女生
精神
合作
劳动
相信
类型
后来
升级
反应
那种
制作
哪家
表现
工资
苹果
参考
工具
号码
并且
今年
参加
父母
提示
硬盘
方便
广州
广告
努力
实际
同学
拥有
费用
全部
更新
采用
楼主
商品
驱动
启动
建设
合同
坚持
幸福
代理
到达
直行
还要
结婚
腾讯
麻烦
一切
超过
短信
正确
形成
平时
欢迎
按照
患者
结构
删除
聊天
便宜
实现
满意
过去
家庭
日本
很大
成绩
就能
代码
伤害
太多
声音
好看
及时
表示
稳定
综合
病毒
公路
明显
除了
搜索
衣服
消费
颜色
改变
检测
甚至
记得
到底
计算
解答
电源
人生
人们
统一
面积
药物
接受
官网
快乐
就要
机械
火车
遇到
避免
感情
习惯
上网
细胞
错误
饮食
决定
物流
呵呵
长期
等级
出生
高手
政府
故事
慢慢
水平
加入
利用
真正
机会
疾病
每次
最新
星期
装修
关键
简介
理解
当时
电池
绝对
金属
回来
意见
食品
快速
破解
物质
行为
进去
区别
价值
性能
眼睛
必要
现象
压力
变化
机器
指导
计算机
方案
温度
右转
蛋白
大神
开机
贷款
感染
主板
语言
原来
减少
时代
报名
目标
刺激
大小
认识
交通
杭州
回收
教学
还能
许多
屏幕
后面
突然
不管
生命
丰富
批准
装备
格式
计划
英雄
照片
感谢
数字
化学
负责
交流
头发
期间
数学
其它
评价
动物
变成
旅游
作品
公交
当地
相对
虚拟
放在
心里
位于
翻译
根本
作者
之类
距离
尽量
需求
明白
用品
路由
合适
结合
施工
加工
工业
大量
招聘
型号
修改
通话
现代
属性
解释
热线
分别
中文
店铺
太阳
年龄
男生
神经
无线
人物
电信
好多
植物
女性
发布
官方
运输
附近
英文
资格
天津
垃圾
因素
良好
老公
发送
投诉
厂家
笔记本
人体
维生素
体育
平方
担心
风险
商务
会计
那样
广场
生物
攻击
接触
成都
山东
高中
房子
广东
从事
酒店
水果
毕竟
小学
估计
整个
登记
万元
分数
建立
专家
重庆
天天
成本
也许
合理
满足
特点
办公
听说
处于
小孩
意义
牌子
登录
执行
测试
激活
空气
下去
补充
分享
调整
永远
所谓
兴趣
歌曲
大道
空调
添加
户口
玩家
尤其
链接
休息
脂肪
工商
教师
售后
理论
正规
目的
智能
限制
事业
三星
做法
描述
程度
越来
一句
会员
梦见
认证
收入
资金
行政
正在
复制
值得
收费
提升
过来
符合
浏览
两种
相当
制造
手续
干净
固定
中医
退款
就算
完整
哈哈
等于
名称
选项
确实
关注
本身
种子
修复
思想
账号
南京
自由
一款
心情
全集
多久
人家
男孩
开心
硬件
出去
形式
力量
白色
充值
包装
受到
分泌
通常
未来
出口
含有
而是
高考
真实
人类
中间
保障
步骤
团队
不仅
相同
图标
同样
登陆
曾经
加油
睡觉
经历
化妆
网页
动作
营业
老婆
用于
实在
当前
实验
网址
确认
网店
信誉
锻炼
播放
从而
它们
故障
批发
说话
带来
兄弟
年级
员工
更加
愿意
厘米
高级
儿童
否则
信号
样子
即使
做到
指点
吸收
背景
流量
新手
多数
还会
传统
课程
领导
服用
特殊
应当
过敏
降低
关闭
机关
至少
制度
全面
类似
身上
优势
充电
证书
物理
肚子
表面
结束
大型
困难
不良
政策
至于
制品
例如
爸爸
快递
提出
阅读
赚钱
通知
人才
商业
针对
病情
以为
独立
最佳
所在
集团
月份
尝试
驾驶
本科
武汉
全程
共同
培养
十分
消化
现实
就业
常见
西安
打印
适当
离开
保存
重启
定位
法定
提前
武器
失败
文章
促进
香港
清洗
成长
积极
看见
体验
放心
玻璃
上去
输出
早上
更换
回家
河南
性格
放弃
地铁
千万
离婚
身边
阶段
判断
上班
服装
规模
开展
车辆
漂亮
小心
睡眠
四川
营销
生长
取得
拨打
联通
好友
工艺
儿子
作文
浙江
装饰
经理
完美
观察
防止
匝道
忘记
上传
绿色
自身
优秀
分手
母亲
才会
比例
消息
安排
重点
如此
比赛
随着
平均
红色
江苏
美丽
感冒
学会
蔬菜
黄金
中药
疼痛
法人
适量
就像
步行
组成
天下
推广
本来
内部
流程
开店
而已
中学
学历
提问
产业
老板
法规
主动
厉害
配件
地图
一只
很快
韩国
大师
追求
牛奶
改善
享受
界面
家具
发育
清理
呼吸
优惠
出血
马上
二手
感受
双方
农村
记忆
联想
配合
集中
准确
对象
购物
宠物
练习
黑色
父亲
元素
吃饭
搭配
专门
超级
民族
最终
论坛
发动机
年轻
问问
成分
时期
训练
往往
乘坐
主角
出版
青春
法院
阳光
阴道
多大
室内
小米
函数
开通
随便
数量
危险
农历
一生
品质
认真
相应
轻松
依法
主题
线路
看着
昨天
还在
面对
食用
中华
前面
鉴定
文字
于是
舒服
几乎
日期
物品
机场
循环
下午
世纪
明确
鸡蛋
连续
成熟
清单
互联
适用
放入
跪求
在家
苏州
目录
动漫
调节
愉快
肌肉
湖南
脸上
中央
家人
规划
辅助
高兴
美容
报告
预防
经典
持续
重装
创新
原则
掌握
用来
清洁
角色
加盟
作业
风格
理想
加强
三角
性价
好处
态度
协议
领域
意识
失去
变得
创业
实力
节目
开放
桌面
页面
表达
人工
卖家
既然
商标
录取
鼠标
异常
平衡
维护
区域
同意
参数
道路
高清
公园
报考
医学
日常
氧化
政治
核心
痛苦
河北
幼儿
半年
十二
郑州
情绪
梦想
房屋
两天
恋爱
伙伴
死亡
接口
账户
透明
正式
很少
一会
技巧
规律
子宫
转换
社区
农业
唯一
激素
货物
基金
加速
自我
部位
买到
周围
定义
窗口
动画
等待
沟通
说说
黄色
感到
女儿
编辑
贸易
土地
面试
再次
环保
主义
承担
发给
杀毒
穿越
生日
回复
彻底
资讯
紧张
充分
地球
血液
创造
考生
求助
来自
血管
一体
初中
想到
现场
两年
邮政
分类
动力
老人
复杂
可爱
开关
婚姻
取消
很高
左转
全球
安徽
研发
键盘
寻找
增强
来源
宣传
每年
财富
想法
反正
路线
大约
好听
赔偿
进口
电动
歌词
美好
起点
明天
飞机
电压
调查
关机
题目
味道
日子
状况
地点
组合
真心
出发
随时
形象
专科
纤维
家长
男女
刚刚
一半
三年
理由
航空
包含
整体
按摩
社保
血压
开业
保养
青岛
体系
快捷
三国
好玩
消失
规则
资产
萝卜
英国
常用
事件
运营
国外
塑料
许可
功效
诚信
热水
逐渐
严格
下列
天然
强大
足够
分子
邮件
去掉
此时
适应
允许
小区
原理
奶粉
排名
付出
公安
体重
形容
先进
接收
病人
实践
关心
沈阳
现金
关节
特色
夫妻
疑问
下降
u盘
角度
实施
战争
参与
这时
公务员
可用
指定
免疫
填写
拒绝
排除
美女
对应
直播
终于
尺寸
能量
临床
肌肤
两次
具备
菜单
婴儿
按钮
除非
古代
生意
慢性
骗子
精灵
还原
房产
事故
完善
东莞
葡萄
天气
统计
媒体
卸载
邮编
供应
足球
孕妇
竞争
模拟
先生
夏天
公共
画面
大陆
新闻
开启
破坏
其次
懂得
贴吧
反复
发票
他人
迅雷
规范
德国
房间
难道
外面
读书
在于
高度
记住
网卡
身高
效率
相互
拿到
商城
优质
利于
办事
说法
立即
五行
挺好
一名
验证
优化
靠谱
后期
回到
采取
合格
含量
宽带
数码
措施
积分
或许
这次
摄像
去年
狗狗
混合
论文
财产
立交
著名
科目
心中
招标
咖啡
策划
专用
心态
可靠
委员
转弯
湖北
分配
获取
面膜
女友
干燥
股票
手动
成人
访问
请教
文明
追问
文学
大连
长沙
设施
发挥
绑定
刷机
教程
备份
去除
一旦
待遇
提醒
前列
总部
越好
宝贝
周期
某些
领取
台湾
突出
男友
电流
那边
生成
对比
损失
旅行
济南
停止
熟悉
云南
充满
默认
承诺
招生
一边
八字
语音
兼容
付款
前方
运用
貌似
调理
事实
消除
人口
全身
总结
终点
容量
少年
出租
电路
炎症
职工
喝水
男性
拜托
创建
暂时
剧情
安卓
清除
养老
时尚
理念
局部
各类
漫画
明星
汇款
体现
级别
帐号
增长
品种
华为
污染
无限
证件
吸引
管道
激光
流行
传说
公式
素质
概念
行动
礼物
年代
财务
战斗
特征
网友
迅速
直到
广泛
星座
以来
订票
商家
各地
定制
打算
打造
查收
她们
进一步
咳嗽
考研
性质
魔法
实用
旁边
清晰
压缩
缓解
联盟
演员
发病
师傅
浪费
太原
百分
附件
想想
右键
消耗
害怕
玫瑰
通讯
互相
大便
推出
强化
蓝色
全天
道理
奖励
来看
听到
模块
牙齿
口服
胎儿
内心
公开
集成
主机
货源
眼镜
存储
几点
摄影
新鲜
合金
热量
酒精
永久
哥哥
冬天
十一
耳机
姓名
上门
护理
早泄
蜂蜜
会议
一致
利益
遗传
手表
监督
前提
后悔
复印
工厂
危害
篮球
痘痘
缺点
事项
联合
同事
江西
超市
散热
金额
能否
广大
功率
大于
提交
利润
买家
姐姐
知名
少女
大街
命令
上下
福建
东方
期待
律师
地下
细菌
电器
给予
上述
保修
定期
代谢
合法
传奇
三天
校园
多谢
图书
标志
回忆
重复
芯片
学霸
命运
成就
原料
零售
排卵
损坏
实物
保健
语文
每日
发出
及其
识别
复习
依据
扫描
个性
构成
居民
心脏
健身
避孕
不锈钢
回去
共享
花园
右侧
耐心
控股
下车
仔细
资质
凭证
成员
人数
地产
医师
转移
公主
广西
详情
地板
地面
禁止
溶液
天空
补丁
辈子
强度
进步
传播
人士
机动
大佬
成语
这边
山西
在乎
反映
而言
诊断
强烈
求解
优点
生理
拍卖
涉及
颗粒
邀请
法国
收藏
多多
解除
生态
口腔
几率
铁路
十五
每月
外观
民生
青年
中山
档案
强制
周边
风扇
美白
管家
三方
光驱
院校
思考
审核
采购
缺乏
均匀
平安
志愿
辐射
子女
面前
好吃
外国
正品
主人
冰箱
依然
驾车
上方
覆盖
始终
合成
陕西
上市
种植
单元
护肤
魔兽
隐藏
自带
敏感
实体
留学
对话
岗位
饮料
然而
通用
梦幻
兼职
家用
顾客
权利
国产
频率
生气
智慧
珍惜
此外
难题
同步
住房
意外
合肥
消毒
防水
相机
方程
金山
还款
师范
如图
网盘
歌手
能源
基地
彼此
顺利
展示
过度
自主
收益
发表
难度
单词
事物
新区
生存
损伤
欧洲
不必
放松
顺序
诺基亚
情人
自信
人流
做出
渠道
两人
妇科
街道
厦门
把握
舞台
相比
偶尔
规格
妹妹
手段
制定
物体
美术
多长
一百
拍摄
转让
一篇
租赁
摩托
众多
改革
烦恼
种类
很久
分区
像素
之外
女子
做爱
手指
体质
似乎
从来
开头
化工
测量
常常
水分
周岁
白天
仅仅
长大
光盘
序列
难以
色彩
体积
动态
和谐
报警
离子
异地
障碍
分布
祝福
爱好
信心
句子
大厦
设定
对面
插入
公告
辛辣
材质
投入
难受
名单
反而
时刻
口碑
胶囊
战略
开水
整理
成年
犯罪
文档
认可
矛盾
轻轻
洗衣
证据
机子
宫颈
重量
当天
稍微
次数
报价
更改
舒适
革命
巨大
生育
缴纳
思维
试验
低于
产权
她说
出售
违法
为何
仪器
一方
达人
排行
照顾
气体
昆明
加热
重视
老年
来到
一颗
临时
分开
担保
居住
面板
荣耀
编码
直线
花钱
一项
中毒
攻略
价位
体检
接近
钢琴
已知
点亮
通信
外地
辅导
中秋
配套
东北
委托
二级
携带
总之
无聊
自考
恶心
大脑
积累
长度
利息
公积金
增值
处女
天使
单独
情感
协会
娃娃
字母
表演
上课
传染
鼻子
大众
发热
信任
全新
物业
高端
观看
华硕
消防
多次
密度
保留
前期
农民
聪明
公布
福州
可见
康复
显得
贵州
连锁
五金
补偿
公斤
七夕
共和
分辨率
尊重
确保
专线
宁波
授权
仍然
部队
感激
尽快
地位
风景
假如
加分
怀疑
检验
哈尔滨
单纯
温暖
小型
出厂
用药
敌人
三种
高温
继承
结局
用人
早期
向上
失眠
发烧
一人
演唱
学位
皇帝
导航
宝石
生肖
教材
年度
对待
少量
中路
引导
主任
理财
见过
指甲
机箱
专卖
客运
创作
提取
冲突
餐饮
游泳
以内
治愈
丰胸
约定
维持
部件
弹出
便秘
想象
专辑
指标
权限
冠军
吃药
找回
季节
加点
燃烧
平常
退出
减轻
辽宁
感动
急求
在意
头像
交换
清水
股份
评估
监控
套餐
重大
好运
厨房
石家庄
托运
分解
平面
运气
将来
家族
车站
白菜
辣椒
审批
微博
警察
丢失
大专
独特
使得
网速
差异
常规
注射
车型
前后
王者
召唤
电机
寿命
道德
机票
搬家
疲劳
朝阳
右边
普遍
分离
退休
发行
印刷
无效
地理
字体
期限
公证
相近
观点
比喻
对外
抑制
资历
战士
鞋子
大哥
见到
佛山
义务
跟着
春天
宿舍
洗净
讨厌
哪儿
一看
电缆
液体
价钱
查找
伤口
上学
工伤
豆腐
相处
令人
真诚
中介
着急
长安
上午
话费
百姓
装置
选用
主持
实行
消炎
复合
符号
校区
讨论
较好
b超
挑战
森林
瞬间
日语
评论
印象
自行
玩具
石头
解放
发货
教授
中午
纪念
较多
完毕
开车
基因
承认
复发
高效
预算
高压
表白
温柔
路口
网游
长途
厕所
停车
权威
证券
助手
过滤
来电
增生
钻石
色素
过于
机油
浪漫
枢纽
喝酒
耳朵
充足
一方面
左边
自治
执业
高校
一类
寂寞
腹部
起诉
弟弟
签证
骗人
碰到
玉米
齐全
洗澡
单击
释放
热情
小姐
插件
注重
赶紧
博士
用途
一遍
频道
影视
下次
等到
当年
邮寄
胜利
长春
顺便
新疆
体会
机智
吉林
据说
远程
无锡
糖尿
预约
舞蹈
流产
好评
妻子
推动
损害
任意
存款
祛斑
左侧
商场
方形
防御
叫做
认定
收集
宇宙
情节
集体
乳房
木马
十三
延长
加重
灵活
细节
带有
土豆
福利
硕士
一根
图像
扩大
音频
美元
蓝牙
乙肝
干嘛
告知
一声
心灵
陌生
主管
进来
受伤
途径
净化
高等
表情
预订
突破
伤心
镜头
肿瘤
机制
人群
直达
司机
英寸
拼音
实习
想起
辛苦
当初
毛病
上升
特性
至今
人力
十八
飞行
做完
乳腺
小于
还好
放到
防护
市区
退货
贡献
网吧
水泥
骑士
同房
协调
精彩
队伍
声卡
药品
多么
返回
学科
郁闷
主流
水晶
考察
浓度
变形
如今
通道
买卖
千米
结石
投标
住宿
南昌
婚纱
商店
跑步
节奏
特效
案例
交往
面部
妇女
幻想
学费
环节
建材
眼皮
亚洲
阿里巴巴
混凝土
灵魂
幸运
为止
急性
中奖
专利
海洋
奥运
电力
缴费
京东
写作
代替
平板
事务
男子
中考
简称
改造
微笑
拍照
淘寶
人气
包皮
东路
出自
转化
门口
伟大
手淫
模具
旅客
话题
预测
后果
表明
现货
过后
居然
案件
磁盘
派出所
机电
姐妹
好心
十大
差别
做事
静脉
意味
秘密
血糖
记者
直径
台式
一键
股东
搅拌
还行
脱发
钥匙
描写
悬赏
疫苗
副本
专注
致力
飞车
形状
切换
奶奶
西游
气候
恐怖
随机
模型
理科
典型
帐户
疤痕
纠结
扩展
南方
妊娠
商贸
下方
名词
走路
干部
网线
少数
人事
诉讼
听力
录音
修理
优先
学员
身材
竟然
导演
余额
千克
景观
脾气
开户
货运
爷爷
双手
注销
天地
鼓励
黑暗
花生
额度
尊敬
奇怪
没法
大人
五年
含义
新建
进程
凤凰
对手
情侣
姿势
词语
见面
过期
随意
死机
帖子
职位
故意
自行车
早日
签订
清淡
订单
人间
留言
教练
欢乐
流畅
祖国
那天
两者
发作
高人
毫米
电阻
场所
打工
西路
时光
理工
一批
毛孔
文科
手工
养成
履行
排出
编号
利率
头晕
概率
上火
小小
活着
工人
签名
体力
相反
解析
蛋糕
肠胃
c盘
器材
形态
都市
为啥
格式化
表格
隔离
造型
成果
个体
趋势
请求
公众
正版
公平
旋转
收获
备案
坐标
助理
缺少
海南
最早
想着
头痛
和平
网点
民间
卓越
白癜风
温州
意大利
实惠
急需
套装
神秘
红包
冒险
必然
广播
初期
深入
冬季
流水
水中
税务
下架
私信
指数
北方
看出
痔疮
出门
兑换
粉丝
执照
发车
实话
牛肉
诗人
受理
女方
从小
养殖
平行
啤酒
毛巾
精力
收缩
摩擦
反馈
可惜
承接
解锁
危机
相似
增大
好久
打的
收取
园林
液晶
例子
单机
饲料
少许
负担
收购
年底
后台
发电
狮子
纺织
柠檬
蓝屏
暑假
温馨
密保
紧急
那位
到处
奋斗
荣誉
欣赏
强调
客观
面包
路径
看法
入手
上次
盒子
呕吐
人人
轮胎
宗旨
频繁
引发
疗法
承受
精子
用力
基于
图形
春节
前景
整形
对症
车子
周年
石油
发达
发型
坐车
财政
喜爱
王子
处罚
病因
究竟
军事
母乳
南宁
尽管
影片
配方
刷新
原件
变更
举办
加快
被骗
魅力
公元
展览
住院
声明
传输
印度
电磁
骨折
近视
动词
流动
金币
原创
通风
长城
弹性
新人
油脂
起码
夏季
活性
兴奋
黑龙江
高于
原子
电气
主演
即将
仓库
保温
相册
大腿
滴滴
缓存
建造
技师
将军
预览
白带
手游
长江
大桥
球员
列表
举报
使命
管用
报销
抵押
精华
宾馆
香蕉
道具
勇敢
债务
举行
地震
十字
转账
社会主义
编程
发明
好象
逻辑
话说
先后
浦东
金钱
搞笑
引擎
报道
出资
占用
兔子
垂直
溃疡
家居
公民
橡胶
无力
唱歌
匹配
按键
桃花
姑娘
扣扣
征信
洛阳
视觉
正好
完结
胸部
传感器
依赖
十六
孤独
器官
婚礼
封闭
总体
亲爱
思路
票价
原始
黄瓜
笔试
西方
新生
创意
询问
旗舰
全文
铃声
深刻
熬夜
模板
天赋
申报
回车
深度
四大
观众
疯狂
抵抗
星星
做梦
字符
病变
互通
合并
划分
骨头
高新
主体
经销
百货
分支
从业
错过
上架
卡通
群众
高铁
回报
这部
罚款
大战
饰品
客车
绿化
试用
截图
公正
平米
善良
餐厅
类别
卫士
高一
展开
戒指
光明
杂志
书记
一大
发放
瘦身
独资
亲戚
手法
珍珠
智力
承包
吉他
卵巢
防治
高分
策略
适宜
探索
视力
体温
追加
大侠
各项
原装
保湿
为人
爆发
黑屏
上线
各自
模糊
疏通
气质
科研
礼包
杀人
小弟
沙发
失调
乐器
变速
早晨
明明
到期
倒入
标签
相爱
大一
过年
这位
热门
眼泪
入口
哥们
小儿
层次
抓住
触摸
口味
极品
说过
腹泻
阴茎
相等
对不起
补贴
重生
大气
某种
性别
法师
騰訊
江湖
机型
已有
百万
产后
放大
网银
医保
生殖
全套
月亮
答应
电商
货币
大夫
吧主
用法
仅供
储存
密封
书籍
学期
担任
仓储
亲人
大地
那时
渐渐
场景
两边
流通
特定
遵守
升高
复查
丈夫
标题
分期
难过
出国
贫血
安静
防晒
汉语
摄入
西北
打击
从此
硫酸
取出
想你
一线
帝国
饮用
冷却
毫升
浸泡
逐步
初一
抽奖
牺牲
火线
指示
西南
刚才
睡前
一辆
动脉
吉祥
写出
私人
传递
自助
勇气
音量
得分
选中
初级
明年
淋巴
新型
双核
违反
友情
照明
披风
爆炸
首次
污水
电梯
运作
按住
早餐
节能
前进
激情
糜烂
淀粉
加密
刑事
销量
吵架
周末
所示
男方
器械
西瓜
音响
考核
守护
每周
出汗
背后
刹车
纠纷
户籍
芝麻
补水
鼻炎
大致
嘿嘿
洗脸
可怜
防腐
对着
四代
口语
柜台
回头
行李
自学
无奈
编制
情形
象征
由此
协商
岁月
业主
文本
过户
根号
食欲
并非
颈椎
景点
遇见
提到
甘肃
货车
所致
贵阳
油漆
精英
公寓
坚强
差距
总会
星光
最强
放置
索尼
共产
三级
无敌
仪表
眼前
车票
点卡
友谊
记载
腐蚀
排列
数值
争取
涂料
涂抹
搞定
轻易
因而
司法
向前
作出
化合
课堂
依靠
赛季
药店
轿车
前往
叶子
裤子
观念
油腻
服饰
天龙
立刻
文艺
茶叶
文三
福田
十四
江南
小组
面粉
徐州
显存
黑白
多余
学术
高达
意志
三大
存档
挑选
哺乳
笔记
确诊
哲学
进化
中级
讲究
气管
解压
命中
增多
万分
门票
纳税
快点
图案
增高
年纪
职称
粘贴
今日
出处
上级
依旧
制冷
款式
珠宝
库存
大会
兰州
硬化
效应
端口
一支
天生
调味
默默
权益
团体
曲线
矫正
近期
小腿
湿疹
语法
轻微
实时
神奇
档次
隧道
温水
多远
蝴蝶
招商
换乘
到时候
买房
反弹
节日
活跃
补助
电容
老鼠
剩余
生病
毫无
之路
土壤
疙瘩
交警
机体
列车
户外
设立
指挥
驾校
刷图
演出
天上
被动
青少年
液压
前途
借款
酱油
靠近
违章
残疾
谨慎
拆迁
豪华
人格
重置
内置
常州
肝脏
俄罗斯
其余
主页
面向
癫痫
非法
住宅
干扰
五月
起名
传媒
安慰
诸葛
真爱
首选
礼品
供电
肠道
东风
活力
紫色
复刻
书面
本质
球队
诈骗
空白
曹操
富含
胃肠
极限
初始
僵尸
大全
群体
巧克力
依次
过高
功夫
排水
润滑
租房
俱乐部
彩票
空中
队友
肥胖
走向
便利
顾问
外部
看书
欧美
内蒙古
互动
风水
黄河
何时
脖子
卫视
繁殖
头部
送给
亲自
熊猫
真假
双击
驾照
长久
遗憾
氧气
原本
核桃
厚度
加载
方位
显著
申诉
将会
条例
彩色
定时
字幕
卫星
称号
头皮
怪物
西部
导入
多看
屁股
赠送
景区
脱落
抑郁
域名
除以
融合
隐私
堵塞
焊接
万能
饭店
玩笑
入学
起床
内膜
疗效
灰色
通行
支撑
上帝
甲醛
加拿大
备用
高三
滤芯
阳历
火影
公益
区分
冲击
边缘
同人
一万
燃气
邻居
辞职
美食
关联
指出
作家
沉淀
移民
年限
绕城
划算
接听
发酵
小号
容器
传真
读者
短期
脸部
汉字
阳性
好人
选手
雅思
精品
咱们
吸血
英特尔
日记
奇迹
两侧
吸烟
可怕
入门
灰尘
反对
呈现
永恒
打包
暗示
均衡
过分
秋天
给力
发音
酸奶
实业
零件
小吃
乡镇
明月
十万
推迟
先天
初三
变量
以便
溶解
人性
系数
讲解
终身
伴有
劳务
城镇
悲伤
老化
车主
选购
医药
加大
查封
越狱
切成
白云
词汇
阴阳
喜好
狐臭
军队
原谅
博客
神话
出错
昆山
甲状腺
资深
新华
远离
恐惧
火锅
做人
枸杞
切除
简直
西红柿
好事
保暖
超越
做成
民事
南北
新浪
南站
春秋
主席
华星
差评
写字
天涯
结算
假设
盲目
风雨
网购
肛门
特种
民主
附加
烟台
脑子
结论
教室
延迟
威胁
祛痘
西班牙
相差
切割
伤残
紊乱
欲望
审查
董事
上限
试题
风湿
气温
男士
婆婆
占地
对称
实名
去世
反射
如意
深深
觉醒
轴承
澳门
要钱
热爱
美观
乐观
珠海
加班
整车
客票
发射
首页
场地
抚养
整天
客人
网通
忽略
克服
犹豫
好奇
首饰
好感
陶瓷
客厅
交叉
猎人
而来
罗马
玩玩
二本
中等
仲裁
发炎
国务院
交给
高潮
优美
一期
战场
党员
下班
腰椎
衣物
饮水
一行
时空
汽油
豆浆
气血
累计
就诊
碎片
指令
中专
连载
汉化
出具
财经
金刚
整合
协助
财付通
亲情
行情
失望
长高
头上
团购
轨道
小白
好坏
同志
删掉
百年
答题
内衣
水货
圣诞
天堂
思念
冷水
外表
家电
右手
羊肉
一座
大力
放假
视野
红枣
屏蔽
工地
光线
团结
水电
半天
百科
到位
海鲜
遥控
集合
考验
栏目
抗体
不安
单身
华夏
新年
疗程
家园
小狗
零食
外形
左手
存放
之所以
碱性
女装
按时
面临
监管
爱心
书法
微量
命名
正面
外界
桂林
真人
次方
调试
找出
老家
焦虑
行货
q币
打字
万人
下水
缴款
感应
仿佛
阶级
职责
开学
射手
暴力
推进
羽毛
海外
经期
电話
善于
刚好
动手
冲洗
上映
改进
冷静
结核
监测
再生
囊肿
央视
中小
出轨
微软
早晚
高低
恶意
诛仙
进食
赢得
花费
清热
泡沫
活泼
喇叭
讲述
养生
半径
起步
东南
翡翠
冻结
大巴
阳台
治理
组装
说出
进攻
黑客
得出
生化
寻求
阿里
生姜
位数
间隔
直销
菩萨
恶魔
地狱
笔画
考证
结尾
防火墙
开拓
光滑
失业
钢筋
尴尬
小店
试纸
挽回
简历
未知
原版
关掉
阻止
运算
布局
持有
冲动
刻录
取决
取名
剧烈
谈谈
内地
审计
爸妈
龙头
真题
判决
试卷
一号
若干
尚未
立体
家乡
购房
女神
奖金
倾向
乳头
洗面
进而
器具
播出
替代
爱人
恭喜
统治
折扣
抗生素
硬度
缺陷
何必
信赖
梦到
决赛
个别
杀死
化验
电瓶
千里
联网
昨晚
圆形
挖掘
早点
女士
下雨
坚定
楼盘
查杀
回归
菊花
厂商
翅膀
蘑菇
激烈
熟练
预计
可信
少于
盐水
螺母
番茄
坦克
扬州
电线
绿豆
白糖
即时
会长
后者
绝缘
一夜
乐园
魅族
辉煌
挣钱
口袋
翻新
拍拍
春风
班级
渴望
净水
醒来
人际
洗发
初二
老虎
成品
进货
缓慢
数控
伴奏
无穷
面子
作战
清新
风云
精油
违约
分成
领先
手臂
三人
转变
木材
答疑
天后
密切
噪音
自从
激动
别墅
南通
温和
再来
眼部
碳酸
燃料
水肿
截止
包包
别说
洗涤
黑头
异性
近年
诱惑
够用
住在
酸性
半月
验收
护士
百合
火箭
打车
相遇
拨号
流血
决心
锅炉
褐色
引进
宗教
大门
瓷砖
前置
分部
隐形
一手
艾滋
波动
转速
改装
节约
效益
今后
一中
释义
楼兰
放手
高档
巴西
展现
配送
开花
千年
胃炎
亿元
树脂
便捷
泰国
果实
护照
忍者
甜蜜
香味
无双
小便
接入
颁奖
境界
玩法
卡片
天蝎
替换
合伙
条款
愿望
两句
锁定
提成
偷偷
现状
媳妇
白银
优越
打架
泉州
癌症
队员
远远
药水
气味
柴油
脱毛
qq群
普及
螺丝
童年
期货
手套
任职
十七
衰老
万一
外科
查查
房价
停留
热血
军人
阳痿
缘分
见效
物资
点点
清华
路过
新加坡
听听
成交
园区
传送
戴尔
气氛
佛教
节省
出色
家中
擅长
进度
喂养
愈合
富有
职务
卖出
名牌
同行
仙剑
精通
繁荣
凌晨
壁纸
真空
读取
天猫
予以
莫名
市政
血丝
弯曲
时机
税号
三月
局域
马路
扩张
箱子
迷茫
口臭
惠州
喉咙
分裂
可行
钢板
权力
社交
沉默
冷冻
额外
痕迹
注定
耳鸣
风机
业绩
文献
异味
口感
整数
慎重
零担
蜘蛛
逾期
转到
猪肉
人均
勿扰
编写
佳能
车间
膝盖
解毒
蚂蚁
相亲
对照
占有
两只
渗透
彩虹
配备
加一
博物
报纸
终止
中年
变态
战队
门窗
炫舞
主播
服務
根治
移植
山水
阴影
粮食
耽误
盆腔
名人
转动
欺骗
莲花
扮演
联赛
两点
头疼
脚气
饮酒
四级
唐山
车牌
李白
前者
向下
紫外
户型
中公
保密
假期
音箱
抽烟
复活
随后
好想
腹痛
缩小
超声
何况
镜子
双子
劳累
以此
高层
眼圈
油耗
内外
空腹
城区
照相
书店
图纸
全民
大海
依照
尿道
夜间
好转
国庆
问道
项链
自制
压迫
拿出
如同
固件
宝马
离合
指南
华丽
阴历
竞技
身心
俗称
草莓
拓展
激励
酒吧
禁用
外语
凡是
眼里
乐趣
精确
帽子
钱包
固态
值钱
重力
基层
两位
凭借
八月
勉强
细腻
往下
订购
框架
人心
县城
月底
跳舞
内涵
恋人
二氧化碳
变压器
临沂
爱国
漏洞
只好
多样
西藏
激发
柯南
校长
氛围
半夜
大事
困扰
羡慕
毛囊
眼袋
皮革
北站
额定
强迫
外出
空格
夜话
机身
显然
金士顿
底部
灯光
签约
小事
封建
早已
朝鲜
潍坊
后续
带动
自觉
萎缩
星级
录像
采集
鼻涕
围绕
牛仔
传销
专项
滋润
楼梯
签字
专升本
生死
片子
粘膜
忽然
导师
班车
夫人
淘汰
探讨
引用
天才
暴击
精准
金牛
柔软
月光
螺旋
金色
心跳
保守
膨胀
发光
尾巴
惊喜
咋办
注明
要点
快快
落实
胶原
角质
平凡
幅度
幽默
新车
产量
插曲
网易
老大
大方
造价
行程
性交
这份
九月
树立
走出
白酒
光泽
勇士
毒素
即便
并发
周杰伦
境内
残留
每人
大厅
彩超
分散
帅哥
胆固醇
美人
大赛
四环
与其
超出
十月
把手
抱歉
三千
课文
登机
加水
外汇
走过
首付
破裂
强力
牙龈
厨师
喷雾
超频
影音
演讲
动车
应付
农场
语句
看待
核实
天河
标识
大胆
拆除
晚期
饰演
全体
偶像
小明
包容
区间
孔子
西门子
初步
学者
过量
答复
元件
止痛
传动
东东
违规
行走
佩戴
特价
指纹
新款
还算
伴随
钓鱼
参照
平静
大虾
北大
响应
切记
世间
元宝
乘以
文凭
优良
门诊
必备
自杀
头脑
平等
齿轮
时装
自卑
打完
网名
站点
回合
做起
主张
饭后
经纪
室外
内裤
章节
嘴巴
省钱
周一
正月
解惑
欺负
期末
包裹
做工
场合
内向
感恩
嘻嘻
间接
村民
王国
约束
希腊
惠普
湿度
开门
木瓜
争议
衡量
不孕
芦荟
师资
生涯
数额
分局
决策
优酷
部落
调用
粗糙
我叫
地质
势力
盐酸
音质
简便
开口
人品
参演
秉承
产地
偏方
应对
防守
再见
挫折
悟空
达成
在职
填充
终端
狂犬
可乐
马桶
十九
变动
保定
刘备
皇后
全日制
眼光
避开
分割
心动
外壳
期望
东站
油性
总裁
花椒
在校
信仰
顶级
固体
原油
不幸
补办
卧室
全力
水瓶
对此
野生
眼神
走进
贵族
备注
阵容
胆囊
最长
火焰
商量
附属
徒刑
诗歌
先锋
海尔
省级
后天
饱和
烧烤
输卵管
售票
南山
勃起
微波
礼仪
热带
病理
轻度
受损
珍贵
骨骼
瘙痒
周六
叶片
畸形
此类
潮湿
应届
月子
钢铁
开设
模仿
一月
活血
作曲
落地
狐狸
奶茶
触发
宽度
直角
样式
叔叔
万里
待机
氨基酸
逍遥
转向
诞生
要素
花开
山寨
跟踪
售价
力度
肾虚
付费
投票
字数
人为
悲剧
航班
座位
美味
电量
立方
威力
启用
木耳
以往
瑜伽
死神
灿烂
骄傲
失效
寓意
袜子
大米
乡村
万物
高二
检察
射击
夜晚
公分
奉献
烟草
变频
外阴
忽视
大同
掉线
味精
淡淡
直至
陪伴
澳大利亚
真相
钢材
布置
漏水
红糖
会好
破碎
同类
买车
鉴别
振动
初恋
海关
气息
提起
闪光
出名
打折
非洲
星空
人和
优雅
心思
舌头
算法
融资
便于
用完
亮度
而又
咽喉
手脚
理性
负荷
漫游
橡皮
大声
征收
宜宾
金牌
拇指
松弛
腰部
储蓄
离职
公历
地毯
模特
迷信
今晚
八部
重阳
纷纷
中转
大蒜
大队
开朗
道歉
静电
水温
磨损
进水
食疗
总共
要紧
效力
蒸发
冷藏
剧场
精密
古典
防火
绍兴
笑话
厂房
打死
扣除
水利
射精
支出
牛皮癣
保安
四月
君子
发动
构造
航天
额头
隔音
家装
步步
标记
细心
西湖
素材
曲张
低温
南阳
脾胃
手感
麻将
排毒
弹簧
至尊
摆脱
盈利
目光
队长
技嘉
電話
遗产
收录
斗争
批评
毫克
墙面
红米
魔术
白金
减速
国民
热点
丧失
组队
快运
香水
精度
财运
运转
膳食
输送
言情
假货
新生儿
温泉
复试
骨质
会所
全家
争霸
双鱼
海贼
水管
义乌
化疗
当代
学业
崩溃
售楼
皱纹
安置
乌龟
度过
制剂
悄悄
宣布
自已
防盗
补血
龟头
这块
草原
送货
短暂
截至
补肾
鲁迅
杀手
红酒
杆菌
作物
真菌
青海
叙述
晓得
小数
源于
持久
基督
酷睿
荷兰
图文
独自
暖气
终极
外贸
正义
纯净
无毒
脑袋
细致
四周
原文
对其
概括
亲身
体制
卡号
肠炎
西站
梦中
示范
行车
蒙古
邯郸
借口
猴子
代言
听见
实质
精致
退票
生效
各国
极其
钢管
辨别
二人
拿去
吉日
嘴唇
战国
晚餐
新娘
协同
赶快
婚后
胳膊
徒弟
刻意
读音
人文
脚本
分钱
中断
最美
被盗
尖锐
手册
水面
盗版
曝光
米饭
著作
胡椒
衍生
急救
寒冷
绘画
吉利
摩尔
纠正
介意
端午
人大
瑞星
当作
沙漠
借助
儿女
嗓子
加成
红外
实木
桥梁
出手
入睡
风暴
恐怕
为此
咋样
四肢
占据
谅解
常识
黑龙
新城
谎言
清明
嘴里
录制
诱发
民政
交友
士兵
出场
脆弱
周日
苏联
可知
戒烟
同等
暴风
三亚
太平
必需
监狱
嘉兴
游客
水库
运费
里边
秘书
子弹
旺盛
周长
镜像
热心
里程
十天
寒假
通关
梅花
拥抱
文物
用量
奔驰
文具
毁灭
享有
一笑
太平洋
料酒
潮流
主观
专柜
无忧
耐用
预定
东京
侦探
心得
偶然
睡着
疫情
省内
调解
就叫
应急
债权
五道口
留意
乌鲁木齐
小人
冰糖
首都
否定
禁忌
果断
痛经
神器
孕期
教训
肥料
忽悠
司马
光纤
接待
潜力
主办
性感
虚弱
路程
出差
三维
高峰
蚊子
教会
同城
颁发
平民
南瓜
肺炎
落后
应聘
车次
节假
混乱
门派
组件
括号
遭遇
中性
泡泡
窗户
名义
插座
家教
流出
情景
影像
成型
纹身
闺蜜
课本
排便
入住
当成
调料
日志
露出
促销
橄榄
不亮
阴性
杀菌
珍藏
富贵
硬座
五百
擦拭
古人
参观
马达
获奖
人身
排骨
底下
测定
一世
南部
耐磨
宁夏
插槽
暧昧
苦恼
果汁
桌子
童话
笑容
合约
鸽子
实战
可达
撤销
死人
乐队
低价
常年
瑞士
难免
霉菌
约会
排放
长寿
就近
晶体
诚实
出行
勤奋
巨蟹
恶性
洋葱
喜剧
信念
蛋黄
跑到
总站
热闹
红肿
肩膀
油炸
针灸
税收
试听
中共
自私
繁体
芹菜
摄取
算命
直流
放开
虫子
奥迪
减小
旋律
助听器
纳米
战术
押金
途中
学姐
因子
战胜
微微
皮带
刺客
中原
影子
报表
试管
鲜花
洗护
县级
体外
烟花
感人
未必
洗头
中途
线条
公会
复读
自愿
私服
馒头
益田
海口
亲密
六月
结晶
拘留
太子
仰卧
大姐
局长
称呼
牡丹
颜料
背面
下巴
打破
四边
弥补
前辈
赌博
秋季
澳洲
希捷
规章
带宽
眼霜
迁移
栽培
猫咪
画质
精液
坚决
金华
商人
钟表
正当
延伸
点火
夸张
车身
充实
产物
举例
主意
外套
饲养
可得
羽绒
四核
排气
睾丸
新东方
店面
马克思
异界
车管
陷入
课题
散步
肾脏
二月
智商
拿来
越南
白羊
巴黎
班主任
明细
养护
每当
睫毛
下册
脱离
谷歌
难看
昵称
日照
妹子
过关
贫困
账单
隔热
白发
菠菜
远洋
死后
孤单
韩语
普通话
周五
只用
玩意
汉族
纪录
高原
家政
暂停
除去
书写
老实
被子
投影
上册
内在
侧面
正宗
代办
流传
上涨
记账
绿茶
韭菜
工行
摆放
搬运
枕头
就让
差点
血脂
满分
酸痛
力学
圆柱
礼貌
静静
填空
痘印
万年
面料
蒸汽
民国
全本
海拔
糯米
初学
中期
运势
安心
颈部
春季
刷卡
小麦
乘车
自有
透气
修炼
器件
刘海
致命
总数
艰难
签到
查出
烹饪
水质
过渡
国王
七天
寄生
山药
三者
现任
总统
浇水
托福
腿部
传承
精心
肥皂
武将
缩短
家属
光学
全年
代价
三轮
相思
粉刺
五一
伤感
转入
墙纸
眼中
青山
姨妈
散发
那儿
大招
发财
旺旺
见于
流失
皮脂
太极
宝贵
综艺
标注
前段
绝望
出于
消灭
误会
风光
花卉
闪电
深处
饺子
促使
啦啦
彩云
香料
绩效
骚扰
聊聊
旋风
雄厚
友好
毛发
橘子
电工
硝酸
泰山
处处
暴露
薪资
言语
个性化
建行
执法
打败
题材
做题
补钙
回声
火星
瘦肉
认知
理发
板材
男科
逛街
椭圆
聚会
泌尿
难忘
日文
当今
郑重
退回
明亮
师大
王朝
对抗
刷牙
放射
氯化
膀胱
创办
照射
穿过
改名
形势
强行
丽江
痤疮
济宁
高管
带走
学士
邮局
肉类
白狐
开封
小腹
计量
大火
从前
专属
报酬
纯粹
降温
雀斑
一同
占领
多发
一览
执着
对付
省份
牙膏
鸡肉
一斤
怀念
软膏
受害
染色体
填报
湿润
分米
开奖
配偶
打扮
甲方
一枚
阿姨
计较
同性
忍受
塑胶
黄豆
观赏
几何
乙烯
发售
建成
封号
无缝
烟机
元宵
限定
接线
电解
那段
年轮
死去
葫芦
催化
得知
自在
遵循
背部
愤怒
南海
偏高
敏捷
高架
文体
街头
稀释
折磨
当兵
亲子
动产
时时
堆积
宽容
全职
从句
海军
散文
阀门
取代
奔腾
芜湖
自来水
黄山
角落
水泡
四种
长相
棉花
三环
关爱
滑动
果然
市民
巩固
饮品
和尚
重疾
天秤
毅力
插头
早孕
分辨
战神
作息
生辰
纯洁
长短
警告
定理
灯泡
国语
介质
耗电
度数
数理
委屈
安定
伴侣
放电
缺钙
成份
不便
工会
断开
就医
文库
发言
浑身
业余
大楼
必定
平原
报关
心疼
大片
带领
诗句
对战
减去
石膏
导出
一秒
挂机
八戒
保鲜
古老
聚集
手掌
码头
筷子
逃避
公子
海带
树木
构建
融入
口罩
水箱
暗黑
食材
磁场
二者
精细
判定
归属
樱桃
核算
从未
短路
食堂
进制
震动
地带
监理
评分
简体
肤色
女王
下拉
电台
历年
麻木
汕头
新版
名额
中兴
排量
用具
银河
兵器
秩序
天真
股权
仪式
扩散
等人
一心
惩罚
尿频
松动
特长
奢侈
背叛
流氓
作弊
证实
门户
适配
清醒
细小
水量
解题
闪烁
指针
轮回
竞赛
眼球
药房
压抑
排队
双倍
改签
研制
打针
丝路
时常
康熙
太太
征服
认同
流泪
命题
霉素
此次
嫁给
痛风
低压
礼拜
修饰
酷狗
转身
职能
牌照
石灰
专区
锁屏
主力
房东
高仿
批量
六级
无尽
转帐
招收
螃蟹
诸多
抱怨
人参
干脆
海水
外伤
挂失
淄博
多彩
心肌
想念
随身
点评
沿海
粉红
遭到
讲话
借钱
疑惑
受骗
联络
就读
尽力
乘客
难得
烟囱
打扰
中学生
正方
太空
更年期
脚步
主线
网球
耽美
时针
补习
接地
花朝
用处
监察
息肉
咽炎
节食
报到
番外
制动
谭松韵
误差
雕刻
古城
清朝
皇家
总价
口水
食盐
局限
袋子
保洁
玄幻
神马
地主
未经
狄仁杰
质地
份额
俗话
外挂
焦点
延续
收款
托管
中外
变色
改编
名气
入选
调剂
尸体
法术
通俗
个子
一盒
家伙
点燃
五星
创立
健脾
昆虫
企鹅
种族
作词
抓紧
本文
少儿
离线
山楂
新村
安防
广阔
一侧
远古
复兴
理事
总机
妖怪
门槛
路面
冷热
红旗
评选
老子
抛弃
透露
月饼
本本
深受
蜡烛
艺人
随之
牵引
餐具
唐代
戏剧
力气
致使
侵犯
等式
坐骑
例假
终结
粤语
香菇
硬卧
梦境
监护
赛尔号
青菜
变换
被告
交纳
乳液
小鸟
人称
臀部
减退
足以
地域
指向
狙击
麻疹
表皮
内侧
度假
招人
公章
宾语
定做
粉色
众人
未婚
痉挛
景色
主频
理智
参保
至上
紧紧
开具
供给
新增
观音
微星
变身
好使
二环
近义词
版权
入侵
巨人
农行
党委
某人
粉碎
推销
銀行
椅子
修养
真理
多元
相连
万事
往返
拦截
走势
吸附
深渊
而后
豆豆
眼角
清爽
盐城
自家
导弹
返还
座椅
实例
下肢
幼稚
良心
挤压
后方
剂量
地坪
求职
简洁
赛车
快播
封面
大纲
紧密
下垂
发帖
瓶子
箱包
进取
事后
健全
搭建
红灯
衣柜
累积
内脏
江山
乏力
管辖
审美
半身
麦克风
明朝
适度
蠕动
肿胀
站立
格局
威海
数组
遗忘
复仇
外星
静态
杂质
传到
阴虚
刑法
收回
断电
肝炎
进展
迷你
其妙
纽约
机床
樱花
滚动
大奖
海上
阻力
掉落
25岁
村委
土木
反义词
珊瑚
纪律
实况
调到
合计
天数
做饭
演艺
低端
西药
海淀
红豆
故乡
滋味
荷花
看病
武装
美发
染料
分校
踏云
向往
尿酸
热敷
装潢
速率
拯救
立马
分红
安利
再买
眉毛
总局
交钱
晴岚
抬头
宝安
德州
弟子
本金
发黄
修正
裙子
跑跑
内科
筛选
鄙视
双眼
是非
后卫
词典
台州
例句
晚饭
授予
近代
手柄
皮炎
无名
乙方
星球
毛泽东
真皮
入境
塑造
春晚
接头
晚会
升降
夜里
亲属
辅食
意向
听歌
皇冠
服从
当日
法学
改正
负面
茄子
各级
流星
病症
解说
自尊
数目
伦敦
特产
上衣
武林
国道
备考
行星
主语
气压
万达
贯彻
服药
金手指
人造
静止
数列
东部
蓝天
大豆
强势
中枢
麻辣
挂号
烦躁
公认
疱疹
两千
神仙
建国
问答
燃油
授课
股市
南路
深层
定律
同情
碰撞
本事
黄褐
战役
季度
导游
高职
知己
暗恋
受孕
间隙
杯子
召开
招募
姓氏
金蝶
辅料
阻碍
解梦
定向
害羞
语气
华南
摩羯
肺癌
洗手
灭火
武术
培育
向量
停机
性欲
新乡
甲乙
心意
看懂
后代
恐龙
拔掉
繁华
交替
关羽
法则
结节
国防
光电
奶油
从新
痊愈
追究
大本营
机组
回国
水浒
消肿
一律
同名
输液
黑夜
大唐
农药
带给
租金
面条
联机
物语
自驾
切片
火爆
婚前
胀痛
商圈
搜狗
极端
未能
头顶
车祸
仙人
鼻腔
沐浴
庞大
烟火
习俗
活塞
橱柜
天文
遥远
鲜明
平分
脱水
坏处
窗帘
高空
习题
园艺
顺丰
多万
盖章
黄钻
格斗
倍数
审判
卖给
注入
去皮
城乡
丰田
耕地
推理
省市
加满
派遣
色泽
人教
纵横
火灾
部长
可谓
止咳
火山
再试
剧本
路边
排序
本田
芒果
负债
发起
东海
头孢
假发
选定
密集
单反
环绕
取款
日益
灾难
预示
线圈
芙蓉
用料
大话
无形
克制
往前
来临
索爱
谓语
外传
罗湖
对焦
吸脂
静音
跳绳
入职
机遇
海绵
缺水
植发
关怀
投保
弯路
诊所
脚印
渲染
凡事
中型
药膏
投注
抗日
时效
字样
民用
麒麟
收拾
嫉妒
药材
税率
提倡
日内
编译
这儿
不痒
光圈
河流
转发
合一
未见
往事
边长
相片
试一试
套路
郵編
北海
赞美
充血
落户
例外
庄园
失恋
国服
煮熟
星际
隆鼻
长辈
概述
小鱼
乒乓
助力
干活
期刊
二维码
菜鸟
新房
保管
隔壁
煤气
板块
湿疣
犹如
加盖
淡化
包子
流浪
元旦
民办
总额
杰出
单价
还剩
登山
院长
手腕
无机
山脉
问候
影院
婴幼
曲子
什麽
异物
钢丝
隐患
沥青
架构
艰辛
岳阳
饼干
破产
绵阳
光芒
无非
法语
杜甫
重心
白斑
归来
荣获
软化
小额
任嘉伦
诚心
动感
箭头
导向
糊涂
汇总
新颖
奔跑
变质
地形
线性
远处
年份
清晨
突发
单子
雷锋
手镯
隶属
墙上
方程式
拷贝
龙岗
亲切
肿大
三阳
附带
灯具
夜斩白
之星
漫长
胎盘
老爸
棋牌
包邮
绳子
前锋
某某
定语
天长
乃至
龙华
远方
鬼泣
嫌疑
房租
详解
羊水
心底
正直
米粉
下联
演奏
预期
根部
创始
众生
陷阱
大伙
修补
看似
精美
原先
电荷
会展
配音
悬挂
斗罗
专题
孙子
淮安
小三
龙女
挥发
概况
世博
微创
哮喘
对联
治安
吸入
负载
说服
使劲
扶持
出身
晋江
贴子
黏膜
吃饱
涵盖
瘦脸
路段
四海
营造
虽说
尽早
原帖
计时
说好
招行
苦瓜
残酷
同居
腰带
公立
声望
跳跃
斑点
受益
沿着
大王
适中
血量
一季
打野
喂奶
车载
旅途
庆典
复方
海底
小镇
后宫
华东
装扮
千金
3.14
大盘
控件
字典
海边
告别
胡子
坏死
诗词
组建
顽固
迷人
滚滚
双重
加深
此处
怪兽
倒霉
小车
柳州
尿液
秒杀
呵护
打动
二期
林业
价廉
艰苦
冷漠
求救
留给
花朵
月球
背包
肌瘤
衰弱
污渍
阿拉伯
演义
支架
古诗
喜悦
客房
从头
鱼类
拉链
虚假
与否
洁具
缘故
缩写
当做
废话
不懈
名片
美化
对接
狗粮
那年
次日
可否
谐音
邪恶
两地
全省
图层
两家
通畅
整齐
五大
碳水
大理
出品
山河
续航
出入
化粪池
质保
贵人
同桌
名言
帝王
体贴
受凉
跟随
麻醉
低音
吃奶
红薯
严肃
克隆
脸型
全屏
积液
卸妆
佣金
亮点
中点
武侠
打法
缺氧
准则
检修
神圣
抄袭
红楼
脸色
确切
干洗
疑难
灵敏
平淡
立方米
唐朝
透过
倒闭
专心
拆开
全能
廊坊
柔和
孕酮
雪花
草药
拉丁
奖品
九江
安康
片段
下线
缓冲
总线
闭合
后背
自称
真情
年费
方针
床垫
拼命
外交
况且
青龙
平稳
粉末
冬瓜
政法
大件
招呼
极度
困惑
洁面
读后感
介入
操控
豆类
祝愿
报废
遭受
寝室
劣势
社团
高山
菠萝
配对
忠诚
天线
起源
严谨
今生
写成
饥饿
中西
传授
本子
题型
煤矿
单调
产妇
吸取
自古
泰安
气势
外包
水泵
泪水
腋臭
大号
帅气
原地
狭窄
失误
患处
铅笔
前端
反感
肚脐
每隔
爱过
包头
列入
潜在
外墙
岩石
陆续
孔雀
法宝
蜜蜂
看图
供货
硬币
谪仙
糖果
粉盒
村庄
加固
视角
切忌
军团
捕捉
武昌
长远
仿真
相识
新兴
两根
食谱
修罗
总分
限度
角膜
务必
满月
隐身
海盗
烘干
连云港
线程
出院
桂花
血小板
风流
雨水
分明
采访
选取
延安
沧州
悲哀
断裂
清空
金鸡
结实
酷跑
气象
国土
顺德
滨海
学籍
任性
棕色
支配
小子
代入
农户
荆州
秘籍
下单
忧伤
高点
门店
器皿
皮具
写入
积水
末日
启示
一碗
认缴
歌唱
药流
可口
低头
宜昌
午餐
抬起
废水
烫伤
降价
假山
宫外孕
武警
失落
冷淡
惊人
易于
准时
正文
衬衫
沉重
机顶盒
冲刺
汽修
油门
变异
黎明
毛细
霸王
本草
过硬
哭泣
抗菌
描绘
军训
叶酸
品味
日月
搭载
落叶
解冻
预留
胃口
定点
无私
两端
爱护
画画
止血
恒温
书画
代购
崇拜
排泄
眼科
每晚
列出
用地
埃及
老头
报复
看清
阜阳
打听
科幻
竭诚
说道
乾隆
人寿
化解
老总
代号
情愿
恰当
衡阳
向右
胸口
石材
核对
话语
官员
迎来
省电
血型
灾害
环氧
考点
香油
香气
预产期
公示
慈善
西点
拉伸
恶劣
踏实
腌制
震撼
低保
肺部
游玩
洛克
置于
日后
镀锌
日报
呼叫
卡住
比率
顶部
下图
虹桥
立案
典当
下属
慢跑
奇艺
便便
子孙
血流
受精
巅峰
旅馆
体型
倾斜
一粒
医科
小猫
韧带
宏观
青蛙
脚趾
緒上
松江
中旬
抵达
秦皇岛
沧海
用车
聚合
绿灯
二中
瀑布
保质
职场
此刻
胃酸
演示
夕阳
高跟
大吉
飞翔
排位
时段
引领
因数
胚胎
车队
亏损
往后
保底
物美
考场
墙壁
色斑
胃病
吃苦
剖腹
肢体
魔王
降压
扣分
姿态
入驻
过热
骗局
忧郁
后缀
各省
基数
宁静
酵母
海岸
甘草
胸闷
调研
节点
各界
尊严
莆田
资费
赋予
一波
染色
溶剂
网关
国企
铂金
柏林
储备
场面
风味
银川
花样
录用
食宿
步步高
编剧
主治
长篇
金考
停产
海参
新开
吊顶
赞同
局面
脊柱
纽扣
折叠
起义
黄体
百花
粒子
口头
幽灵
魔力
沙滩
黄疸
磷酸
接种
书名
回应
探测
年检
功耗
顺畅
野外
偿还
简易
正如
韩文
嘉宾
迎接
铸造
保卫
试图
盛世
港口
彩信
物料
轨迹
沉迷
救援
预售
雷达
西游记
身影
主食
十足
初次
顺达
物价
松下
玲珑
疲惫
侵权
废物
熱線
金鱼
中部
签署
耶稣
身子
青铜
成衣
家务
样品
韩剧
引入
毒霸
记事
调动
底薪
倒数
非诚
白白
倒车
西医
主导
汇率
泡水
入户
选举
乳胶
苏宁
练级
市委
合作社
盛大
双十一
评定
熟食
还给
贵重
意愿
五笔
历程
发红
交付
造句
双向
拆卸
病菌
纯属
反击
木头
消极
归纳
当归
风情
男装
丰厚
报修
学问
肤质
西宁
血清
奥特曼
沉积
特权
吕布
继电器
遵义
位移
合唱
苏打
熄火
得意
融化
引力
七彩虹
镜片
上古
七年
快手
超值
阿根廷
匆匆
上进
粉底
精选
借贷
摇滚
米兰
北部
解码
石榴
修行
马力
伺服
原名
部首
去痘
赐教
急速
减弱
梧桐
延时
外卖
神州
潜水
粪便
绝版
顺着
外来
投詖
着凉
阿胶
骂人
上边
身后
安阳
装机
主料
退还
出示
红尘
全额
长发
乘风
泡脚
炒股
光照
定价
立足
华北
气球
养颜
机率
三层
往来
笑着
叠加
倾城
崛起
镇江
面团
五险
大兴
苏轼
夏日
八卦
免得
向西
转型
终生
才华
香烟
食指
扁桃体
赣州
九州
悠悠
鱼缸
交际
山地
四方
教堂
奴隶
华人
成像
伦理
国籍
很远
星辰
监视
低级
面具
底盘
扎实
吃亏
平整
将近
后人
双腿
诚意
软骨
鲜艳
气泡
防范
绘制
解封
腕表
搬迁
蟑螂
中英
早起
拼搏
边框
墙体
硅胶
飞天
颜值
投篮
劲舞
独家
两面
商丘
购置
定金
屋顶
支行
当当
毛衣
断奶
压制
教导
外婆
事宜
歌声
舍得
荧光
球场
纱布
马来西亚
小红
再者
计数
九龙
已婚
债券
课外
夫妇
状元
限量
升华
商铺
创伤
稀有
光辉
杜绝
城堡
飞利浦
小球
播种
冰心
神舟
班长
大叔
穴位
脱皮
三菱
大庆
蓬莱
楼房
重重
手足
一朵
弥陀
安检
借鉴
叛逆
发泄
提琴
污物
当下
科比
交错
一模
上床
湛江
展会
年金
少林
酸碱
薄荷
坏人
腋下
统筹
高贵
心痛
超人
缺失
木质
契约
前台
茫茫
武功
安保
跳出
理疗
處理
较差
富士康
警惕
出道
抛光
过低
申通
假装
复位
中南
范畴
日化
限额
鼻塞
明日
装配
流感
老哥
皮鞋
二胎
潜能
猜测
只见
缝隙
前世
投放
新西兰
音效
牌号
贴心
船舶
宪法
依托
金猪
周知
饱满
地暖
手写
腰痛
熟人
环球
药剂
起伏
90后
短语
重度
纸箱
逃跑
买票
毒性
大树
低调
生鲜
懂事
互助
卖掉
裁判
理赔
收养
全盘
轩辕
辅路
每秒
莲子
见证
牢固
出演
常务
省略
放学
过错
超强
敬业
东湖
亦可
回避
包月
景象
下边
画家
打孔
豌豆
强奸
破损
总量
好学
圆锥
解读
界限
洽谈
襄阳
侵略
读卡器
舒畅
分组
美满
噪声
废旧
起重
花瓣
圆满
阻塞
才艺
雪山
中和
一封
开创
承办
口气
速龙
柿子
咸阳
何种
摄氏
欠费
线索
乳酸
课后
地黄
口令
保姆
方言
番禺
胰岛素
及格
单人
性病
高尚
比重
深情
直观
奶水
黄昏
定量
按揭
美甲
拿起
坑爹
抽象
拌匀
改动
制药
营运
风俗
酷派
益气
中成
脚踏
郵政
呼和浩特
视图
魔鬼
花粉
周公
宝箱
功放
湖州
演技
退烧
怠速
眩晕
重建
时不时
见解
上路
肥大
存活
兰花
高频
相克
漏电
很早
当月
反抗
打球
当场
帮派
白醋
田园
演绎
中关村
考前
处置
杏仁
明珠
民航
一趟
水洗
空军
遗嘱
患病
递交
生机
人脉
核准
奖项
分娩
车程
半球
遗失
东城
作风
矿物
脉冲
霸气
名师
悠久
少见
胎动
燕子
利尿
符文
美洲
申论
串联
烤箱
树叶
凝聚
弹药
胖子
生抽
风筝
超高
签收
松开
潇湘
快餐
样本
妇幼
洁净
师生
秋冬
水印
抖动
尼康
红军
清风
首发
乳汁
七星
脚下
家常
煤炭
孵化
卵泡
恶化
修真
熄灭
自慰
重做
招工
花儿
剑圣
雕塑
甲亢
百分比
菏泽
花纹
张开
出水
香菜
确立
聊城
鲤鱼
谈话
单片机
邢台
延缓
合集
扶贫
感悟
祖先
恶人
加装
傻瓜
矩阵
三七
三餐
22岁
印花
懒得
农家
弙場
次元
叉车
路人
仓鼠
上岗
遗址
犯法
随地
皮质
三相
热销
搜搜
和好
喝茶
石英
黄道
宋代
请到
特快
冲锋
屋子
盯着
测评
听话
领奖
外教
质疑
行使
口号
诅咒
格栅
胶水
维权
蔷薇
丝袜
地基
退伍
主编
茉莉
合资
此后
雷霆
极速
咀嚼
草坪
报案
油画
盗号
全书
配料
离去
宁愿
浮肿
天鹅
视线
奢华
解开
脑海
母婴
自豪
秋风
血常规
境外
美妙
购机
一字
降水
选拔
排尿
红颜
后置
汤匙
时钟
薄膜
舞曲
拖欠
株洲
深厚
圣经
单个
凝固
刺痛
发芽
大使
优异
店家
超大
比分
奇妙
良性
双层
楼层
网民
心率
二战
模样
卡巴斯基
塞班
变革
牧场
尽头
西门
巴士
腐败
泰州
d盘
继发
按压
罪恶
间距
裂缝
挣扎
改版
植株
踏板
私家
承载
谈判
洗车
唤醒
氨酸
秦始皇
买入
搜集
交谈
淮南
运载
回程
赛事
启发
水流
粘连
治病
招考
盗墓
直辖
安庆
写真
汗水
信阳
公关
底层
打磨
术语
年华
名校
反思
哑铃
人头
坏事
麻痹
剪刀
伸出
专职
贴膜
偏向
其一
祛除
血栓
串口
趣味
菩提
财物
矿山
通州
注释
乱码
到家
增压
私立
纠缠
液化
庆祝
官司
冰冷
复数
闻名
黄石
根源
封印
收音
搞好
双脚
离家
浴室
就象
租车
威刚
边界
余生
三元
潇洒
请勿
渐进
盗窃
遍布
蜗牛
半岛
广电
徘徊
片区
龙珠
处分
鹦鹉
发胖
忙碌
起动
油箱
本土
联邦
水准
调头
闪退
海信
江门
税额
矿泉
珠江
代金
天王
清代
抗原
战地
手心
砂浆
内销
弱点
定额
公用
充气
经费
偏偏
好找
打扫
唱片
外侧
光荣
沸腾
抒情
泄露
暖暖
迎宾
湿热
内核
励志
间断
玩耍
做错
南门
荷叶
损耗
妖精
征集
蔬果
达标
高尔夫
降临
火花
江阴
附魔
撥打
军火
吃肉
蚌埠
相邻
软卧
月薪
鸭子
相见
转运
草本
请假
开工
京沪
马云
阴部
秘诀
诸如
貔貅
上联
出事
成龙
邮票
规矩
老妈
混沌
附着
大写
基准
台词
晚安
欢喜
天子
烟酒
军区
富裕
情歌
共用
原图
盖子
机房
译文
越野
游览
染发
吸气
臭味
腹胀
腹肌
施肥
处方
开阔
凉水
巧妙
火腿
喷嚏
腊月
疏松
除尘
品德
快感
自拍
军校
薪酬
弊端
壮阳
退役
地段
终究
唯有
荔枝
配制
立法
剪辑
三项
近日
折腾
穿透
共振
投稿
泥土
王道
徽章
货架
束缚
滋补
中海
换算
亲友
安神
空虚
洗掉
药师
审理
点滴
格子
原价
五官
t恤
范文
常熟
感言
公测
购车
偏低
炸弹
字节
扑克
店主
吸水
火烧
政权
心愿
红茶
门面
抽血
列举
解脱
悬浮
制约
评审
华山
明代
被迫
携手
冠心病
亚马逊
嘉定
侵害
联考
腰酸
科普
国民党
日光
置业
导电
外貌
芳香
探究
购票
看不起
轮廓
单车
宽松
检索
包围
前任
应收
哭闹
小偷
职员
写法
选秀
内饰
强壮
开到
伸直
领悟
中指
噩梦
君主
股价
一闪
耐力
伤人
市值
钢笔
漳州
分母
色调
板子
坏道
鸡精
大枣
六合
打人
鲫鱼
醋酸
鞍山
收敛
文书
汉中
图象
修建
离别
还清
战力
黑豆
章程
圆通
分化
小点
短发
探险
大意
白头
大臣
一栏
敢于
外省
盘点
书本
支部
笔者
上牌
山区
酵素
矩形
大理石
计入
整容
大灯
告白
黑人
车库
小草
尽情
情报
学徒
游侠
螺纹
捕鱼
两万
流域
嵌入
助学
清澈
上行
南充
指引
别克
统考
引流
难点
乾坤
业界
花心
瑞典
白雪
大运
情趣
内测
将它
羊毛
交点
餐馆
梯形
哈利
白龙
别名
消退
比亚迪
大笑
药用
部署
失踪
水源
技校
湖人
卧铺
佩服
历时
纸张
嫌弃
转载
药妆
银色
缓缓
失灵
摩托罗拉
司令
关卡
预报
涡轮
母爱
电能
浓缩
球迷
爱美
真伪
导线
穷人
观测
师父
取值
工序
突击
青睐
压强
华中
陆地
詹姆斯
普洱
市级
配电
纳入
自习
脊椎
诸侯
圈子
骨髓
增进
燕窝
气门
天山
模范
自强
灵感
脑筋
金银
红霉素
肥肉
圆钢
日出
测验
泰迪
梅毒
分店
高高
病例
情缘
光彩
估价
满满
防伪
四处
后排
清香
游乐
试剂
顶尖
意境
躲避
韩版
点数
峡谷
能发
吨位
部份
石化
特钢
相加
下行
格外
票据
晚年
炎热
实数
房事
畅通
水性
号称
萧山
首要
北极
编曲
童装
下药
往年
勇于
序号
预备
东营
宝鸡
卧床
线段
延期
真好
隆胸
孝顺
借记
交费
两岁
就该
滋养
转正
送礼
红花
虚伪
梁山
世家
预先
深色
愉悦
黑道
抢劫
堕胎
以致
冰雪
坐落
供血
调制
法制
捡到
因果
抽筋
喂食
父子
全称
吐槽
包车
漂流
体操
词条
调控
交代
昨日
追踪
出台
小叶
墨水
钱财
便携
舒缓
砂糖
辖区
顶端
蛋清
匹克
稳重
误区
大幅
夜班
泸州
有特色
杨柳
就怕
侠盗
日历
透视
排斥
鼻窦
古镇
街舞
求生
本能
细细
回首
加减
百家
录入
指望
大雨
瘦腿
东门
肾炎
差价
支援
不二
黄油
冶金
轻重
阻挡
没收
停用
浮动
甜心
同仁
快件
切开
红斑
一寸
丝毫
借给
登场
言论
西洋
电场
瑞昱
一串
咨詢
前行
顽强
阐述
面点
暗影
茅台
增添
中信
微型
关门
成效
申领
属相
横向
卫浴
顶点
教具
窍门
江北
阴囊
糖类
下跌
阳虚
起飞
漂移
立场
唾液
爱爱
王牌
丸子
花都
龙门
花草
票务
医用
胃镜
预告
由来
王爷
玉石
迷惑
博览
霸道
上司
昆仑
双侧
红红
傻子
编织
短文
更名
装卸
亲近
课时
五格
逃脱
平和
公顷
孕囊
深夜
固化
详见
评委
上部
相逢
孤儿
环城
争吵
车道
载体
爽肤
木兰
标配
总监
津贴
出路
晴天
清宫
双人
劳损
棉袄
脸颊
商用
金毛
冰冻
步伐
念头
插口
风寒
糟糕
赵云
领养
交互
燕麦
西亚
大洋
东南亚
涉嫌
草地
肿块
反过来
土豪
围巾
修剪
简化
执夷
开场
生子
代数
大衣
唯美
玻尿酸
上身
车厢
对口
小班
装载
现行
每位
山庄
调和
蓝光
思议
微风
制片
水稻
金龙
过早
酸钾
清凉
底线
限时
文言
白马
胆小
税费
自体
骨科
控油
敬请
守信
反面
苍穹
腹腔
金丝
沈海
料理
盘符
滴水
美版
实务
动机
飞信
事迹
玄武
容积
坚硬
胎心
管制
代发
时节
年审
型材
人名
医嘱
迷宫
感知
网校
抵扣
赔付
片刻
支原体
诊疗
张力
化痰
直属
爱吃
对角
淡水
假体
婚庆
昂达
信贷
手持
专营
二线
离心
傍晚
向导
柚子
白血病
大肠
辩论
魔方
一等奖
休眠
观光
下级
升起
南极
惊讶
性情
千古
质感
转氨酶
爆破
毒品
俯卧撑
海报
晋升
论证
非凡
停电
状语
凝胶
印章
牵挂
可可
橙色
统称
切实
躺着
课件
严禁
o571
匿名
切断
蒸气
回路
嘲笑
字段
两岸
冰淇淋
客栈
援助
接通
物种
否认
高音
名著
伪装
水解
救助
磨合
向东
小丑
挂靠
表述
乙醇
乖乖
点头
加剧
可视
致癌
畜牧
张家港
源头
独生
青云
卵子
切勿
震颤
单据
眼线
纹理
过时
甜美
折旧
沙子
金发
淋浴
钻戒
上层
先行
下部
顿时
推算
殖民
变焦
肝肾
查阅
格力
肝病
尊贵
甜食
曲折
锦州
必修
射线
追逐
心烦
首家
许昌
离谱
简约
击败
水池
封装
刘德华
丰满
残忍
三峡
腰疼
争夺
汉口
另行
水位
五菱
青鸟
一口气
完好
归还
打卡
担当
北美
爵士
组词
端正
三段
双卡
点心
使者
史记
衡水
拉力
漱口
演变
火力
跳动
倾听
隐隐
和田
生平
盛开
切口
多想
气动
萝莉
恰好
公办
红眼
小鸡
台阶
小巧
接吻
整洁
违背
食道
完事
强劲
得罪
春运
重伤
英格兰
白虎
张飞
窗外
泳池
涨价
皇上
假冒
实训
休假
妨碍
猪肝
放过
奠定
放屁
近似
常德
金沙
情商
房贷
德语
抗战
化石
龙虾
昌平
顺产
龙之谷
搜狐
浓郁
牙刷
四维
鸣人
分工
项羽
榠務
称作
来得及
强求
调养
也称
幻影
甘心
承德
名誉
市长
生锈
响声
杠杆
网王
重组
潜伏
赤壁
试点
克拉
段落
祭祀
西城
肩周炎
景物
乐意
开裂
地名
西数
肇事
直升
困境
截面
匀速
拉萨
书包
超标
穿刺
奇幻
特工
宝山
流年
取暖
传达
车位
倡导
素养
b站
架子
内服
八大
银耳
折射
历代
粗大
高薪
性爱
骆驼
国税
接龙
韧性
双梦
东芝
通便
预付
升学
方块
名声
航嘉
国标
小品
大象
发觉
烟雾
随风
推拿
单曲
经贸
批次
黄芪
影楼
笑脸
函授
等腰
能带
闹钟
强悍
想像
听课
红烧
独具
绽放
想吐
美景
管子
鸡汤
灭亡
放款
和睦
护发
跳过
瞄准
相助
多情
金陵
赶到
地久
代练
薄弱
坚果
歧视
应力
新品
张家界
双面
误解
见识
磨牙
灵芝
气功
分行
送达
粘稠
煮沸
刻苦
收视
福特
凹陷
征途
吸毒
时辰
素描
火热
密钥
群组
迟到
镶嵌
逝去
开除
受过
画图
师兄
节制
水土
对策
打掉
真品
货款
改良
住所
三中
牵手
透支
台风
伸缩
软垫
扭曲
长虹
摸索
两手
三甲
钓具
奇侠
交接
奶瓶
周转
供水
企事
恋情
托儿
大棚
反方
固执
心慌
水份
截屏
这天
但愿
飞船
肝癌
侵入
快车
白痴
丰台
耐克
车门
开局
北宋
烟具
仙女
相交
赌场
外围
大牌
体谅
公道
偏差
纸质
娘家
极致
此事
钙片
粘液
地道
情怀
光源
钟情
经络
并联
锦绣
朝代
苗木
救命
歌舞
骑车
伸展
乱想
图表
法官
富翁
撞击
参赛
坚固
花香
带头
嘴角
主干
临近
腐烂
堕落
心事
多样化
美团
感性
樱雪
西装
民营
鲁大师
自检
车轮
厌恶
用钱
异响
洁白
舞步
坚实
普陀
航海
电费
翻身
倾诉
着火
催眠
顶配
处事
血红
装甲
文笔
开盘
读完
八角
猕猴桃
寄托
迷失
论述
抽出
延误
手提
丝绸
木板
打嗝
民众
公公
除数
墨西哥
挤出
路灯
削弱
缺血
淋漓
跑车
三楼
大区
吃力
订婚
繁多
订立
甜甜
严厉
热烈
骷髅
三类
辩证
污垢
收钱
规程
口才
院子
订做
连着
正负
24岁
任选
光伏
吉凶
胆汁
兽医
魔女
断路
车速
富士
千瓦
针织
绿叶
军官
金星
条纹
影驰
奈何
韩式
电网
感叹
乐视
妥善
拖拉
肿痛
华图
正比
光标
漂白
室友
口径
环线
跨越
质控
古董
条约
卡巴
朝廷
各式
深化
小妹
枯燥
开辟
贺华岁
身旁
古装
日立
青椒
肯德基
绘图
評價
冒充
平平
开光
吃醋
学妹
急于
敌方
中度
摘要
总理
无损
重叠
天干
协作
学前
古今
太后
打发
口干
滋阴
时而
繁忙
吹风
兴起
六安
补救
拿走
扬声器
警方
脑部
大都
出装
相伴
仇恨
行列
草木
中耳
长征
寻常
动能
精湛
刘邦
托盘
学园
女声
常数
洗浴
原型
接送
步枪
讲座
菲律宾
进球
整套
三生
感慨
佳人
随即
运河
名表
约翰
造就
桂圆
葡萄牙
地格
恰恰
回味
喷漆
修身
下身
树枝
预言
白兔
褪色
运球
直肠
白领
健美
领袖
虚荣
右脚
散装
同伴
年末
朦胧
室温
置换
梨花
阿莫西林
定型
豆瓣
何以
0.01
复旦
抚顺
短篇
议论
气缸
港行
拉稀
安宁
考古
杨幂
免税
顾虑
特异
起始
款项
全场
忘掉
拉拉
下旬
粉尘
务实
琉璃
坎坷
打入
时速
黄花
金卡
神兽
镇静
代售
篮板
中将
花花
核酸
车险
光亮
尘埃
祈祷
精益
衔接
讽刺
桃子
畅销
循序
来往
化瘀
雷神
途经
闵行
汗腺
段位
省油
负重
法庭
胃部
防爆
养血
卡里
陈述
肇庆
烘焙
政务
计生
火龙
昏迷
自营
监事
欧阳
罚金
试探
音色
算式
涂层
标价
联动
区号
水滴
学车
交大
搬到
本领
假日
放宽
推送
张家口
赤峰
耳聋
左旋
天平
天翼
山顶
药学
表达式
騰讯
苍白
屋里
滑雪
天水
鉴于
其间
元年
眺望
峨眉
忌食
圆心
地税
卡卡
名胜
保费
变性
快门
电热
宿迁
制式
连同
所见
抗性
红星
郊区
执导
孟子
赢利
笼子
氢气
竣工
偶数
波长
光绪
双胞胎
汇报
日元
示例
容纳
常住
地摊
反响
可取
房源
流光
着重
校内
开幕
亲朋
鼓楼
音速
强者
首领
调度
误导
饭前
光大
恒心
兴隆
骗钱
中式
瓜子
单招
湘潭
标的
鱼肉
沙星
彩妆
分销
多些
闻到
半山
闲置
手链
显现
气流
蔓延
光环
连击
南开
剧组
烈士
结膜
无悔
秘方
多玩
品尝
凉拌
荷尔蒙
马鞍山
救救
侮辱
预科
酒后
转职
同济
语种
同心
贵宾
火炬
斗士
华侨
反光
琢磨
电极
投递
分录
判刑
资助
从容
生发
海峡
吓人
功课
贝壳
一言
宝玉
乐山
油烟
阴谋
电站
求婚
阵营
抽取
银子
法兰
山路
手枪
左脚
陆军
商户
直立
干性
彼岸
伸手
互换
霹雳
肾病
店鋪
云裳
调皮
滨江
用语
政协
全开
双语
新机
油泵
构件
见仁
挡住
黄帝
旨在
卡顿
交界
一倍
客气
侦查
金水
担忧
保单
整机
蜂窝
濮阳
作废
许嵩
下落
战绩
东汉
产科
盗贼
升值
撰写
长治
姜片
二批
心心
记分
恒大
过人
戒掉
死刑
死者
讲课
剑灵
出众
发誓
连线
南宋
封顶
改掉
区位
瘫痪
点券
网恋
甘油
喷涂
方正
隐蔽
日军
龙猫
外置
医治
跆拳道
和弦
早饭
随心
市場
工龄
壁挂
迹象
绒毛
周瑜
校友
建房
苦难
化脓
横批
论语
分身
收据
炒作
贯穿
直通
暗夜
组长
浮云
背诵
波特
儒家
一听
群山
玛丽
民俗
福彩
奇数
后备
写完
一击
钙质
高烧
抚摸
眼睑
多层
依依
省委
凑合
铁道
填补
空闲
废气
美德
手绘
卡丁
运城
统招
明智
团长
弥漫
以至于
平顶山
骑兵
胸前
稳健
征兆
炫耀
五彩
狗肉
老少
温室
干预
好累
譬如
申购
品位
一卡通
波罗
榜样
武士
梳理
茯苓
摆动
单挑
水煮
周口
元气
晾干
剑魂
四面
言行
电玩
口岸
下课
透镜
富婆
票房
甲午
正经
充沛
鱼肝油
走动
怀化
雄性
丁香
开支
回顾
名利
相距
時代
责令
龙骨
袭击
啪啪
耗材
吞噬
引产
开采
二极管
视网膜
浓厚
刀具
杀虫
降级
费劲
迁入
银杏
苍蝇
相符
忍耐
鳄鱼
张杰
正气
干涉
气死
纸巾
阶层
总和
牙周
猪蹄
心头
举止
万家
肋骨
存入
一针
惯性
胶带
动听
前程
臭氧
一族
焦作
遗迹
藏头诗
道士
珠子
洪水
起初
尿急
润肤
世俗
检讨
大病
知足
万和
常温
大头
精盐
自理
卡车
步入
薏米
狠狠
乔丹
磁性
外资
图解
勤劳
欧式
推行
可笑
跳转
朗读
异世
明目
花屏
文案
奉贤
体能
抗癌
建模
投降
赞助
相貌
山羊
垄断
坚信
低廉
缅甸
成真
雪地
高楼
摇头
养胃
木工
爬山
奇瑞
太湖
泄漏
油菜
化肥
骨干
声道
候选
听得
膏药
前沿
动员
润肺
必杀
肉眼
火柴
凭着
将要
画风
分段
适时
罗姆
脊髓
齐齐哈尔
多元化
修订
等离子
标本
洋洋
玛瑙
纯正
壮大
诊治
私下
冰凉
旗杆
飞扬
缩减
交汇
高危
早教
风行
举动
坚韧
庐山
步兵
奇异
内环
誓言
精索
怎能
前身
虎门
操纵
科室
护甲
触点
光阴
划痕
眼花
大块
火花塞
核定
一格
失常
胃痛
字号
等候
后退
存折
考量
王妃
特质
教科
呼唤
自如
悬崖
音标
地砖
房管
中环
辞典
北斗
两头
台北
再度
跑道
太仓
烹调
遗精
外力
怀抱
为难
化简
首席
猥琐
野猪
所长
响起
出钱
后盖
分量
护栏
一觉
填入
死于
无常
布料
蝙蝠
爱伦
出卖
鼻孔
求证
登入
格格
大爷
玩儿
大帝
喝完
脸红
新店
抛物线
删减
详谈
吃掉
推测
招牌
肉质
白居易
冤枉
习性
葱花
锤子
操场
清远
宅基
琥珀
滔滔
卷轴
修辞
池塘
虚空
入党
望远镜
骑马
讲师
树林
安装工程
戏曲
开办
舌苔
转学
丝瓜
书院
浩瀚
火机
支线
达州
隔断
犯规
尿素
按月
面目
量子
湿地
舅舅
侧重
缤纷
专长
外文
流入
求购
后勤
半导体
中场
入库
海棠
辛卯
闭经
卖场
滨州
天格
茂名
画室
追回
受限
兼顾
音节
会考
摔倒
打拼
缠绕
远景
盘子
南非
抢救
二类
邀约
群岛
堪称
三期
友人
里飞沙
抗震
零点
餐桌
拿钱
运送
比特
专一
牛皮
全局
年终
财神
庚寅
拳头
交集
人海
冷凝
太热
水产
三才
面貌
报刊
中风
固然
近战
肉肉
叫声
高处
诠释
气虚
散光
诗经
风华
大明
播音
药业
单体
回想
嘟嘟
小時
补气
备胎
负数
源码
契税
连衣裙
疲倦
上饶
速递
选修
滋生
黑洞
久久
姚明
巨星
史诗
提炼
拖动
象棋
对立
暑期
宣告
转会
套房
多于
电离
连招
